{
  "version": "1.0",
  "truncation": null,
  "padding": null,
  "added_tokens": [
    {
      "id": 0,
      "content": "[PAD]",
      "single_word": false,
      "lstrip": false,
      "rstrip": false,
      "normalized": false,
      "special": true
    },
    {
      "id": 1,
      "content": "[UNK]",
      "single_word": false,
      "lstrip": false,
      "rstrip": false,
      "normalized": false,
      "special": true
    },
    {
      "id": 2,
      "content": "[CLS]",
      "single_word": false,
      "lstrip": false,
      "rstrip": false,
      "normalized": false,
      "special": true
    },
    {
      "id": 3,
      "content": "[SEP]",
      "single_word": false,
      "lstrip": false,
      "rstrip": false,
      "normalized": false,
      "special": true
    },
    {
      "id": 4,
      "content": "[MASK]",
      "single_word": false,
      "lstrip": false,
      "rstrip": false,
      "normalized": false,
      "special": true
    },
    {
      "id": 5,
      "content": "[رابط]",
      "single_word": true,
      "lstrip": false,
      "rstrip": false,
      "normalized": true,
      "special": true
    },
    {
      "id": 6,
      "content": "[بريد]",
      "single_word": true,
      "lstrip": false,
      "rstrip": false,
      "normalized": true,
      "special": true
    },
    {
      "id": 7,
      "content": "[مستخدم]",
      "single_word": true,
      "lstrip": false,
      "rstrip": false,
      "normalized": true,
      "special": true
    }
  ],
  "normalizer": {
    "type": "BertNormalizer",
    "clean_text": true,
    "handle_chinese_chars": true,
    "strip_accents": null,
    "lowercase": false
  },
  "pre_tokenizer": {
    "type": "BertPreTokenizer"
  },
  "post_processor": {
    "type": "TemplateProcessing",
    "single": [
      {
        "SpecialToken": {
          "id": "[CLS]",
          "type_id": 0
        }
      },
      {
        "Sequence": {
          "id": "A",
          "type_id": 0
        }
      },
      {
        "SpecialToken": {
          "id": "[SEP]",
          "type_id": 0
        }
      }
    ],
    "pair": [
      {
        "SpecialToken": {
          "id": "[CLS]",
          "type_id": 0
        }
      },
      {
        "Sequence": {
          "id": "A",
          "type_id": 0
        }
      },
      {
        "SpecialToken": {
          "id": "[SEP]",
          "type_id": 0
        }
      },
      {
        "Sequence": {
          "id": "B",
          "type_id": 1
        }
      },
      {
        "SpecialToken": {
          "id": "[SEP]",
          "type_id": 1
        }
      }
    ],
    "special_tokens": {
      "[CLS]": {
        "id": "[CLS]",
        "ids": [
          2
        ],
        "tokens": [
          "[CLS]"
        ]
      },
      "[SEP]": {
        "id": "[SEP]",
        "ids": [
          3
        ],
        "tokens": [
          "[SEP]"
        ]
      }
    }
  },
  "decoder": {
    "type": "WordPiece",
    "prefix": "##",
    "cleanup": true
  },
  "model": {
    "type": "WordPiece",
    "unk_token": "[UNK]",
    "continuing_subword_prefix": "##",
    "max_input_chars_per_word": 100,
    "vocab": {
      "[PAD]": 0,
      "[UNK]": 1,
      "[CLS]": 2,
      "[SEP]": 3,
      "[MASK]": 4,
      "[رابط]": 5,
      "[بريد]": 6,
      "[مستخدم]": 7,
      "!": 8,
      "\"": 9,
      "#": 10,
      "$": 11,
      "%": 12,
      "'": 13,
      "(": 14,
      ")": 15,
      "*": 16,
      "+": 17,
      ",": 18,
      "-": 19,
      ".": 20,
      "0": 21,
      "1": 22,
      "2": 23,
      "3": 24,
      "4": 25,
      "5": 26,
      "6": 27,
      "7": 28,
      "8": 29,
      "9": 30,
      ":": 31,
      ";": 32,
      "<": 33,
      "=": 34,
      ">": 35,
      "?": 36,
      "@": 37,
      "A": 38,
      "B": 39,
      "C": 40,
      "D": 41,
      "E": 42,
      "F": 43,
      "G": 44,
      "H": 45,
      "I": 46,
      "J": 47,
      "K": 48,
      "L": 49,
      "M": 50,
      "N": 51,
      "O": 52,
      "P": 53,
      "Q": 54,
      "R": 55,
      "S": 56,
      "T": 57,
      "U": 58,
      "V": 59,
      "W": 60,
      "X": 61,
      "Y": 62,
      "Z": 63,
      "[": 64,
      "\\": 65,
      "]": 66,
      "^": 67,
      "_": 68,
      "`": 69,
      "a": 70,
      "b": 71,
      "c": 72,
      "d": 73,
      "e": 74,
      "f": 75,
      "g": 76,
      "h": 77,
      "i": 78,
      "j": 79,
      "k": 80,
      "l": 81,
      "m": 82,
      "n": 83,
      "o": 84,
      "p": 85,
      "q": 86,
      "r": 87,
      "s": 88,
      "t": 89,
      "u": 90,
      "v": 91,
      "w": 92,
      "x": 93,
      "y": 94,
      "z": 95,
      "{": 96,
      "|": 97,
      "}": 98,
      "~": 99,
      "«": 100,
      "·": 101,
      "»": 102,
      "،": 103,
      "؛": 104,
      "؟": 105,
      "ء": 106,
      "آ": 107,
      "أ": 108,
      "ؤ": 109,
      "إ": 110,
      "ئ": 111,
      "ا": 112,
      "ب": 113,
      "ة": 114,
      "ت": 115,
      "ث": 116,
      "ج": 117,
      "ح": 118,
      "خ": 119,
      "د": 120,
      "ذ": 121,
      "ر": 122,
      "ز": 123,
      "س": 124,
      "ش": 125,
      "ص": 126,
      "ض": 127,
      "ط": 128,
      "ظ": 129,
      "ع": 130,
      "غ": 131,
      "ف": 132,
      "ق": 133,
      "ك": 134,
      "ل": 135,
      "م": 136,
      "ن": 137,
      "ه": 138,
      "و": 139,
      "ى": 140,
      "ي": 141,
      "ٓ": 142,
      "ٔ": 143,
      "ٕ": 144,
      "ٖ": 145,
      "ٗ": 146,
      "ٙ": 147,
      "ٚ": 148,
      "ٜ": 149,
      "ٝ": 150,
      "ٞ": 151,
      "٠": 152,
      "١": 153,
      "٢": 154,
      "٣": 155,
      "٤": 156,
      "٥": 157,
      "٦": 158,
      "٧": 159,
      "٨": 160,
      "٩": 161,
      "٪": 162,
      "٫": 163,
      "٬": 164,
      "ٱ": 165,
      "ٲ": 166,
      "ٳ": 167,
      "ٴ": 168,
      "ۚ": 169,
      "–": 170,
      "—": 171,
      "‘": 172,
      "’": 173,
      "“": 174,
      "”": 175,
      "…": 176,
      "##a": 177,
      "##p": 178,
      "##n": 179,
      "##d": 180,
      "##ا": 181,
      "##ل": 182,
      "##ر": 183,
      "##ج": 184,
      "##و": 185,
      "##ن": 186,
      "##7": 187,
      "##0": 188,
      "##1": 189,
      "##4": 190,
      "##8": 191,
      "##ط": 192,
      "##ي": 193,
      "##ح": 194,
      "##ه": 195,
      "##د": 196,
      "##ة": 197,
      "##ف": 198,
      "##ق": 199,
      "##خ": 200,
      "##م": 201,
      "##f": 202,
      "##r": 203,
      "##i": 204,
      "##c": 205,
      "##ص": 206,
      "##غ": 207,
      "##ش": 208,
      "##ك": 209,
      "##h": 210,
      "##g": 211,
      "##ز": 212,
      "##س": 213,
      "##6": 214,
      "##5": 215,
      "##9": 216,
      "##e": 217,
      "##u": 218,
      "##o": 219,
      "##l": 220,
      "##t": 221,
      "##q": 222,
      "##s": 223,
      "##ء": 224,
      "##ب": 225,
      "##j": 226,
      "##3": 227,
      "##ت": 228,
      "##ى": 229,
      "##أ": 230,
      "##ظ": 231,
      "##ع": 232,
      "##ئ": 233,
      "##2": 234,
      "##ض": 235,
      "##v": 236,
      "##ث": 237,
      "##ذ": 238,
      "##V": 239,
      "##X": 240,
      "##M": 241,
      "##T": 242,
      "##S": 243,
      "##F": 244,
      "##I": 245,
      "##L": 246,
      "##O": 247,
      "##A": 248,
      "##b": 249,
      "##m": 250,
      "##C": 251,
      "##Z": 252,
      "##إ": 253,
      "##y": 254,
      "##R": 255,
      "##E": 256,
      "##ؤ": 257,
      "##k": 258,
      "##آ": 259,
      "##N": 260,
      "##H": 261,
      "##D": 262,
      "##x": 263,
      "##w": 264,
      "##G": 265,
      "##z": 266,
      "##J": 267,
      "##B": 268,
      "##ٕ": 269,
      "##U": 270,
      "##Y": 271,
      "##K": 272,
      "##P": 273,
      "##W": 274,
      "##Q": 275,
      "##٠": 276,
      "##٩": 277,
      "##٣": 278,
      "##٥": 279,
      "##٨": 280,
      "##٦": 281,
      "##ٔ": 282,
      "##٢": 283,
      "##٤": 284,
      "##ٲ": 285,
      "##٧": 286,
      "##ٱ": 287,
      "##١": 288,
      "##ٳ": 289,
      "##ٓ": 290,
      "##ٗ": 291,
      "##ٙ": 292,
      "##ٚ": 293,
      "##ٖ": 294,
      "##ٞ": 295,
      "##ٜ": 296,
      "##ٝ": 297,
      "ال": 298,
      "##ال": 299,
      "##ية": 300,
      "الم": 301,
      "##ات": 302,
      "##ان": 303,
      "##ار": 304,
      "في": 305,
      "من": 306,
      "##ين": 307,
      "##ام": 308,
      "##لى": 309,
      "##ها": 310,
      "##ير": 311,
      "وال": 312,
      "الت": 313,
      "##ول": 314,
      "##اد": 315,
      "##را": 316,
      "الع": 317,
      "##ري": 318,
      "##ون": 319,
      "الأ": 320,
      "##ما": 321,
      "##ست": 322,
      "على": 323,
      "##اب": 324,
      "##نا": 325,
      "##لا": 326,
      "##لي": 327,
      "##ور": 328,
      "لل": 329,
      "##وا": 330,
      "أن": 331,
      "الس": 332,
      "##يا": 333,
      "##يد": 334,
      "الا": 335,
      "##هم": 336,
      "الح": 337,
      "ان": 338,
      "##عد": 339,
      "الق": 340,
      "بال": 341,
      "##وم": 342,
      "الد": 343,
      "##ائ": 344,
      "##اء": 345,
      "الج": 346,
      "الش": 347,
      "##رب": 348,
      "##يل": 349,
      "##اف": 350,
      "الب": 351,
      "عن": 352,
      "##لك": 353,
      "مع": 354,
      "##ود": 355,
      "##رة": 356,
      "الف": 357,
      "##يس": 358,
      "##عة": 359,
      "إلى": 360,
      "##من": 361,
      "##حد": 362,
      "##رك": 363,
      "##قد": 364,
      "الن": 365,
      "وت": 366,
      "هذ": 367,
      "##مة": 368,
      "الإ": 369,
      "##قة": 370,
      "##مل": 371,
      "##اع": 372,
      "##وق": 373,
      "وأ": 374,
      "الذ": 375,
      "التي": 376,
      "الخ": 377,
      "##سب": 378,
      "##تم": 379,
      "الك": 380,
      "##يم": 381,
      "##رو": 382,
      "##لة": 383,
      "##عل": 384,
      "الص": 385,
      "فى": 386,
      "##بر": 387,
      "##ارة": 388,
      "##في": 389,
      "##بي": 390,
      "لا": 391,
      "##مد": 392,
      "الو": 393,
      "ما": 394,
      "##بل": 395,
      "##حت": 396,
      "الر": 397,
      "##قي": 398,
      "##هد": 399,
      "##بد": 400,
      "الى": 401,
      "مح": 402,
      "الل": 403,
      "##ته": 404,
      "وا": 405,
      "##سي": 406,
      "لم": 407,
      "##وي": 408,
      "##جل": 409,
      "##كن": 410,
      "##لم": 411,
      "##صر": 412,
      "##با": 413,
      "##يع": 414,
      "وق": 415,
      "##ئيس": 416,
      "##لال": 417,
      "كان": 418,
      "##فا": 419,
      "##مر": 420,
      "##ني": 421,
      "##تي": 422,
      "##سم": 423,
      "وم": 424,
      "الذي": 425,
      "المت": 426,
      "الث": 427,
      "##حة": 428,
      "##سا": 429,
      "است": 430,
      "##اني": 431,
      "الط": 432,
      "بين": 433,
      "هذا": 434,
      "##كر": 435,
      "##خر": 436,
      "##جم": 437,
      "##سة": 438,
      "##صل": 439,
      "أو": 440,
      "##رف": 441,
      "##عب": 442,
      "##عت": 443,
      "##كل": 444,
      "##قت": 445,
      "بعد": 446,
      "##عا": 447,
      "##يف": 448,
      "##يات": 449,
      "هذه": 450,
      "##شار": 451,
      "##هر": 452,
      "##رض": 453,
      "##سل": 454,
      "##نت": 455,
      "وه": 456,
      "##اض": 457,
      "##دي": 458,
      "كل": 459,
      "##أن": 460,
      "أم": 461,
      "##كت": 462,
      "بن": 463,
      "##وب": 464,
      "##دا": 465,
      "##نة": 466,
      "##جه": 467,
      "والم": 468,
      "##ذا": 469,
      "العام": 470,
      "##دم": 471,
      "##اص": 472,
      "##ولة": 473,
      "##طة": 474,
      "##يرة": 475,
      "إن": 476,
      "##ديد": 477,
      "##رت": 478,
      "##راء": 479,
      "##زي": 480,
      "##لف": 481,
      "##عم": 482,
      "##قا": 483,
      "##ادة": 484,
      "علي": 485,
      "##انية": 486,
      "الي": 487,
      "##وض": 488,
      "##جا": 489,
      "مد": 490,
      "وب": 491,
      "خلال": 492,
      "##وس": 493,
      "##بار": 494,
      "وك": 495,
      "##ريق": 496,
      "##شر": 497,
      "##كون": 498,
      "مت": 499,
      "##الم": 500,
      "20": 501,
      "عبد": 502,
      "يت": 503,
      "لت": 504,
      "##بن": 505,
      "##عض": 506,
      "وي": 507,
      "##قل": 508,
      "##وف": 509,
      "##وع": 510,
      "##بة": 511,
      "##انت": 512,
      "تم": 513,
      "##در": 514,
      "عام": 515,
      "##وج": 516,
      "##الي": 517,
      "##وز": 518,
      "##يث": 519,
      "##خل": 520,
      "##ورة": 521,
      "##دة": 522,
      "##طن": 523,
      "##طل": 524,
      "تع": 525,
      "والت": 526,
      "##ثر": 527,
      "الأم": 528,
      "بم": 529,
      "##ركة": 530,
      "##خت": 531,
      "##ارات": 532,
      "مش": 533,
      "المح": 534,
      "##سية": 535,
      "تح": 536,
      "##وات": 537,
      "##جلس": 538,
      "##قر": 539,
      "المن": 540,
      "##اري": 541,
      "سي": 542,
      "##رح": 543,
      "##ئة": 544,
      "وز": 545,
      "##خص": 546,
      "كما": 547,
      "##رق": 548,
      "بل": 549,
      "رئيس": 550,
      "##تها": 551,
      "##وري": 552,
      "##وى": 553,
      "##رائ": 554,
      "مس": 555,
      "##دد": 556,
      "##ند": 557,
      "##الة": 558,
      "أي": 559,
      "وع": 560,
      "##عية": 561,
      "##اج": 562,
      "ذلك": 563,
      "##ضاف": 564,
      "للم": 565,
      "العرب": 566,
      "##وية": 567,
      "##فت": 568,
      "أك": 569,
      "وقال": 570,
      "##اح": 571,
      "حيث": 572,
      "##وت": 573,
      "##كوم": 574,
      "##ذلك": 575,
      "##سط": 576,
      "##الية": 577,
      "##عي": 578,
      "بت": 579,
      "الغ": 580,
      "اله": 581,
      "محمد": 582,
      "هو": 583,
      "##عود": 584,
      "بد": 585,
      "##ثل": 586,
      "مست": 587,
      "##فر": 588,
      "تت": 589,
      "##ادي": 590,
      "المد": 591,
      "المست": 592,
      "##كم": 593,
      "##فس": 594,
      "له": 595,
      "تن": 596,
      "الاست": 597,
      "جم": 598,
      "##حدة": 599,
      "قبل": 600,
      "##ضا": 601,
      "قد": 602,
      "بر": 603,
      "##تى": 604,
      "الدول": 605,
      "اليوم": 606,
      "##ليم": 607,
      "بح": 608,
      "المس": 609,
      "##طقة": 610,
      "ول": 611,
      "##كي": 612,
      "##وان": 613,
      "##ينة": 614,
      "وح": 615,
      "وج": 616,
      "##قب": 617,
      "وإ": 618,
      "العالم": 619,
      "المع": 620,
      "مؤ": 621,
      "##زة": 622,
      "ومن": 623,
      "الجم": 624,
      "##ناء": 625,
      "با": 626,
      "ون": 627,
      "##سبة": 628,
      "الات": 629,
      "عبدال": 630,
      "##وة": 631,
      "##لب": 632,
      "الام": 633,
      "هي": 634,
      "بش": 635,
      "##جت": 636,
      "الآ": 637,
      "##سرائ": 638,
      "##أس": 639,
      "يع": 640,
      "##فة": 641,
      "يم": 642,
      "##يت": 643,
      "ام": 644,
      "##قات": 645,
      "المش": 646,
      "الله": 647,
      "##يرا": 648,
      "الز": 649,
      "غير": 650,
      "##صاد": 651,
      "##جة": 652,
      "##ابة": 653,
      "الرئيس": 654,
      "حتى": 655,
      "السيا": 656,
      "ست": 657,
      "##فض": 658,
      "##حا": 659,
      "وفي": 660,
      "##وار": 661,
      "ولا": 662,
      "##قط": 663,
      "19": 664,
      "##رد": 665,
      "##مو": 666,
      "وس": 667,
      "##قدم": 668,
      "بعض": 669,
      "##ثة": 670,
      "##يان": 671,
      "##كة": 672,
      "##جال": 673,
      "لي": 674,
      "##فع": 675,
      "##نية": 676,
      "تش": 677,
      "كانت": 678,
      "##ركز": 679,
      "به": 680,
      "تق": 681,
      "ات": 682,
      "أنه": 683,
      "هنا": 684,
      "##يين": 685,
      "النا": 686,
      "البل": 687,
      "##اصة": 688,
      "##عات": 689,
      "عند": 690,
      "##حاد": 691,
      "أس": 692,
      "##كومة": 693,
      "ملي": 694,
      "##سلام": 695,
      "##بت": 696,
      "##له": 697,
      "أب": 698,
      "##خرى": 699,
      "العمل": 700,
      "##كد": 701,
      "للت": 702,
      "##رات": 703,
      "##قيق": 704,
      "##صف": 705,
      "يق": 706,
      "الانت": 707,
      "##كان": 708,
      "##جد": 709,
      "##ارج": 710,
      "##امل": 711,
      "##ورية": 712,
      "##افة": 713,
      "مجلس": 714,
      "##جتما": 715,
      "##يز": 716,
      "وف": 717,
      "##طر": 718,
      "##راق": 719,
      "##صب": 720,
      "دول": 721,
      "بأن": 722,
      "الوز": 723,
      "##حر": 724,
      "##حمد": 725,
      "##رن": 726,
      "##سات": 727,
      "كب": 728,
      "##قبل": 729,
      "##واق": 730,
      "##ابات": 731,
      "لكن": 732,
      "عمل": 733,
      "##ضع": 734,
      "##لام": 735,
      "##وك": 736,
      "##دارة": 737,
      "##طال": 738,
      "##يب": 739,
      "انت": 740,
      "المؤ": 741,
      "الماض": 742,
      "##يش": 743,
      "##افظ": 744,
      "##ولا": 745,
      "##حو": 746,
      "وهو": 747,
      "##فاع": 748,
      "##ولى": 749,
      "عدد": 750,
      "200": 751,
      "##اه": 752,
      "وقد": 753,
      "قال": 754,
      "##بية": 755,
      "##به": 756,
      "##جنة": 757,
      "##ديدة": 758,
      "يوم": 759,
      "##حي": 760,
      "##اة": 761,
      "##قاء": 762,
      "##انون": 763,
      "فيها": 764,
      "##كية": 765,
      "المص": 766,
      "بالم": 767,
      "قر": 768,
      "الري": 769,
      "حس": 770,
      "الان": 771,
      "##لاح": 772,
      "العربية": 773,
      "##يج": 774,
      "عم": 775,
      "##اخل": 776,
      "##صة": 777,
      "##عيد": 778,
      "##اط": 779,
      "هناك": 780,
      "تأ": 781,
      "##طاع": 782,
      "##صد": 783,
      "##عمال": 784,
      "التى": 785,
      "مصر": 786,
      "##از": 787,
      "نظ": 788,
      "##ارية": 789,
      "##إن": 790,
      "##سطين": 791,
      "الض": 792,
      "##لسطين": 793,
      "منذ": 794,
      "حول": 795,
      "##ويت": 796,
      "##ثير": 797,
      "المر": 798,
      "ين": 799,
      "مص": 800,
      "لأ": 801,
      "##بات": 802,
      "##دى": 803,
      "والأ": 804,
      "##حدث": 805,
      "سب": 806,
      "##وقع": 807,
      "ولك": 808,
      "##سرائيل": 809,
      "الأول": 810,
      "##امج": 811,
      "مق": 812,
      "لن": 813,
      "بأ": 814,
      "##ذه": 815,
      "بها": 816,
      "ثم": 817,
      "##وص": 818,
      "##قى": 819,
      "##لت": 820,
      "فت": 821,
      "السعود": 822,
      "المنا": 823,
      "##هما": 824,
      "الأس": 825,
      "##روع": 826,
      "##بنان": 827,
      "ور": 828,
      "تس": 829,
      "خط": 830,
      "تد": 831,
      "الساب": 832,
      "201": 833,
      "##زب": 834,
      "يج": 835,
      "##وعة": 836,
      "##ائل": 837,
      "مر": 838,
      "##شف": 839,
      "التع": 840,
      "بالت": 841,
      "##زيز": 842,
      "##راج": 843,
      "لح": 844,
      "##كا": 845,
      "##راف": 846,
      "ولكن": 847,
      "المتحدة": 848,
      "تص": 849,
      "التن": 850,
      "##رى": 851,
      "##ؤول": 852,
      "أكثر": 853,
      "##امة": 854,
      "سن": 855,
      "##اريخ": 856,
      "الصح": 857,
      "الموا": 858,
      "المم": 859,
      "الذين": 860,
      "يح": 861,
      "##فاق": 862,
      "##طف": 863,
      "##ختلف": 864,
      "##يلة": 865,
      "ود": 866,
      "##بع": 867,
      "لأن": 868,
      "عليه": 869,
      "نفس": 870,
      "مثل": 871,
      "##سبب": 872,
      "دون": 873,
      "##ضر": 874,
      "يمكن": 875,
      "الرياض": 876,
      "##خب": 877,
      "اللا": 878,
      "##جتم": 879,
      "##ينا": 880,
      "العم": 881,
      "##ارس": 882,
      "##يو": 883,
      "لها": 884,
      "يست": 885,
      "حق": 886,
      "يكون": 887,
      "الحكومة": 888,
      "انه": 889,
      "##علام": 890,
      "##قتصاد": 891,
      "##صول": 892,
      "او": 893,
      "##الات": 894,
      "##طار": 895,
      "##ثم": 896,
      "اي": 897,
      "##واء": 898,
      "##انب": 899,
      "المو": 900,
      "##هل": 901,
      "وزير": 902,
      "فيه": 903,
      "##كتور": 904,
      "اعت": 905,
      "جميع": 906,
      "##باب": 907,
      "وش": 908,
      "أحد": 909,
      "##ركات": 910,
      "لبنان": 911,
      "فر": 912,
      "الحر": 913,
      "##وط": 914,
      "##غير": 915,
      "##ئا": 916,
      "الوطن": 917,
      "تحت": 918,
      "##وير": 919,
      "والع": 920,
      "أمس": 921,
      "التح": 922,
      "تج": 923,
      "##مين": 924,
      "##فل": 925,
      "العامة": 926,
      "##غم": 927,
      "مو": 928,
      "مبار": 929,
      "##00": 930,
      "##ظر": 931,
      "##هدف": 932,
      "##لاق": 933,
      "يتم": 934,
      "##ساعد": 935,
      "وذلك": 936,
      "##نى": 937,
      "##ربية": 938,
      "##ظم": 939,
      "##برا": 940,
      "##لاء": 941,
      "##ضة": 942,
      "##يخ": 943,
      "##لاف": 944,
      "وان": 945,
      "تط": 946,
      "مليون": 947,
      "الاتحاد": 948,
      "الوق": 949,
      "أمام": 950,
      "موا": 951,
      "##ريد": 952,
      "بإ": 953,
      "##فيذ": 954,
      "##امعة": 955,
      "##خط": 956,
      "وكان": 957,
      "وأن": 958,
      "يد": 959,
      "##عاون": 960,
      "آخر": 961,
      "##ودة": 962,
      "حد": 963,
      "##رج": 964,
      "لإ": 965,
      "##ضي": 966,
      "##الح": 967,
      "تلك": 968,
      "##بط": 969,
      "##وقف": 970,
      "والا": 971,
      "##حث": 972,
      "##يران": 973,
      "##ذكر": 974,
      "الدولة": 975,
      "الأمير": 976,
      "السل": 977,
      "##كرة": 978,
      "##الت": 979,
      "بشكل": 980,
      "إلا": 981,
      "##ضم": 982,
      "##عر": 983,
      "##لاث": 984,
      "اللبن": 985,
      "##جموعة": 986,
      "##ضافة": 987,
      "الأمن": 988,
      "##عار": 989,
      "الرا": 990,
      "التج": 991,
      "##اته": 992,
      "نق": 993,
      "##جر": 994,
      "منها": 995,
      "##جتمع": 996,
      "##سان": 997,
      "المنت": 998,
      "الدكتور": 999,
      "##دية": 1000,
      "الماضي": 1001,
      "##بلغ": 1002,
      "##لية": 1003,
      "##يه": 1004,
      "##وائ": 1005,
      "##اس": 1006,
      "##اش": 1007,
      "المنطقة": 1008,
      "##خابات": 1009,
      "الأخ": 1010,
      "##ورو": 1011,
      "الاجتما": 1012,
      "المصر": 1013,
      "وزارة": 1014,
      "##يئة": 1015,
      "يش": 1016,
      "##وال": 1017,
      "بط": 1018,
      "##يفة": 1019,
      "##يلي": 1020,
      "للا": 1021,
      "فإن": 1022,
      "الإن": 1023,
      "##جن": 1024,
      "الجن": 1025,
      "الشعب": 1026,
      "احت": 1027,
      "والد": 1028,
      "##خد": 1029,
      "##ائية": 1030,
      "عليها": 1031,
      "الخارج": 1032,
      "ولي": 1033,
      "وهي": 1034,
      "القر": 1035,
      "##يط": 1036,
      "##زم": 1037,
      "الفلسطين": 1038,
      "##عى": 1039,
      "مم": 1040,
      "وأضاف": 1041,
      "##ساء": 1042,
      "##ارت": 1043,
      "##جراء": 1044,
      "أول": 1045,
      "##مية": 1046,
      "##ماء": 1047,
      "##شاركة": 1048,
      "##ليات": 1049,
      "حال": 1050,
      "الفريق": 1051,
      "##كمة": 1052,
      "##باد": 1053,
      "كت": 1054,
      "جن": 1055,
      "##لكة": 1056,
      "شخص": 1057,
      "##عداد": 1058,
      "فيما": 1059,
      "##مال": 1060,
      "##زمة": 1061,
      "قي": 1062,
      "##يدة": 1063,
      "##وح": 1064,
      "المجلس": 1065,
      "واست": 1066,
      "أش": 1067,
      "سيا": 1068,
      "##كس": 1069,
      "الشر": 1070,
      "##انيا": 1071,
      "جه": 1072,
      "##افظة": 1073,
      "##فضل": 1074,
      "مدير": 1075,
      "أيضا": 1076,
      "##داء": 1077,
      "بع": 1078,
      "أخرى": 1079,
      "##ظمة": 1080,
      "##خدم": 1081,
      "##واب": 1082,
      "خاصة": 1083,
      "##ظام": 1084,
      "##كري": 1085,
      "نت": 1086,
      "الذى": 1087,
      "مما": 1088,
      "الملك": 1089,
      "تست": 1090,
      "العراق": 1091,
      "ضد": 1092,
      "##ظيم": 1093,
      "سل": 1094,
      "أع": 1095,
      "إلي": 1096,
      "ارت": 1097,
      "عبدالله": 1098,
      "##فق": 1099,
      "##اما": 1100,
      "##طني": 1101,
      "##اق": 1102,
      "##ريب": 1103,
      "##ليل": 1104,
      "##ابل": 1105,
      "##أة": 1106,
      "##وريا": 1107,
      "تر": 1108,
      "بسبب": 1109,
      "زي": 1110,
      "منطقة": 1111,
      "##يري": 1112,
      "الفت": 1113,
      "عدم": 1114,
      "عبر": 1115,
      "قائ": 1116,
      "ليس": 1117,
      "##خذ": 1118,
      "##كثر": 1119,
      "##عادة": 1120,
      "دولار": 1121,
      "والتي": 1122,
      "##جهة": 1123,
      "##صح": 1124,
      "شركة": 1125,
      "الإسلام": 1126,
      "##ربع": 1127,
      "##زل": 1128,
      "للأ": 1129,
      "صح": 1130,
      "##تمر": 1131,
      "المبار": 1132,
      "تكون": 1133,
      "##شرة": 1134,
      "##غي": 1135,
      "##نائ": 1136,
      "##ضية": 1137,
      "##جان": 1138,
      "داخل": 1139,
      "أحمد": 1140,
      "وخ": 1141,
      "الكويت": 1142,
      "##سيا": 1143,
      "##شت": 1144,
      "##حن": 1145,
      "نحو": 1146,
      "##اعت": 1147,
      "الوقت": 1148,
      "##لق": 1149,
      "دور": 1150,
      "الاحت": 1151,
      "##كو": 1152,
      "عندما": 1153,
      "##سكر": 1154,
      "فقط": 1155,
      "والإ": 1156,
      "##سر": 1157,
      "الشيخ": 1158,
      "##حات": 1159,
      "السعودية": 1160,
      "الثاني": 1161,
      "##علن": 1162,
      "الأولى": 1163,
      "العلا": 1164,
      "##جز": 1165,
      "فقد": 1166,
      "منت": 1167,
      "##اذ": 1168,
      "الآن": 1169,
      "##ومات": 1170,
      "مدينة": 1171,
      "##ياة": 1172,
      "حين": 1173,
      "ولم": 1174,
      "نها": 1175,
      "##يال": 1176,
      "وما": 1177,
      "قام": 1178,
      "10": 1179,
      "##اعة": 1180,
      "العق": 1181,
      "##رفة": 1182,
      "##قديم": 1183,
      "البر": 1184,
      "##همة": 1185,
      "وجود": 1186,
      "##عضاء": 1187,
      "##الد": 1188,
      "##ضاء": 1189,
      "##قال": 1190,
      "##قيقة": 1191,
      "##عزيز": 1192,
      "##سين": 1193,
      "##غة": 1194,
      "أبو": 1195,
      "##سن": 1196,
      "##قاف": 1197,
      "فريق": 1198,
      "بما": 1199,
      "##اهرة": 1200,
      "أما": 1201,
      "##راك": 1202,
      "المركز": 1203,
      "الوزراء": 1204,
      "##وما": 1205,
      "والح": 1206,
      "##سبوع": 1207,
      "الاقتصاد": 1208,
      "##صبح": 1209,
      "المه": 1210,
      "بق": 1211,
      "اللجنة": 1212,
      "الشرق": 1213,
      "##اتها": 1214,
      "أكد": 1215,
      "##فريق": 1216,
      "إذا": 1217,
      "##طي": 1218,
      "##طالب": 1219,
      "الدين": 1220,
      "والذ": 1221,
      "##ياه": 1222,
      "والن": 1223,
      "##شارك": 1224,
      "##نان": 1225,
      "##كتب": 1226,
      "##ولايات": 1227,
      "تف": 1228,
      "أق": 1229,
      "للح": 1230,
      "##واقع": 1231,
      "##لاثة": 1232,
      "##ابع": 1233,
      "الوطني": 1234,
      "##ادر": 1235,
      "##زيد": 1236,
      "لاع": 1237,
      "بالإ": 1238,
      "وص": 1239,
      "لد": 1240,
      "##وه": 1241,
      "##ريط": 1242,
      "##زا": 1243,
      "##راض": 1244,
      "بالن": 1245,
      "##ريف": 1246,
      "14": 1247,
      "15": 1248,
      "##طق": 1249,
      "الأمري": 1250,
      "السابق": 1251,
      "جديدة": 1252,
      "الدولية": 1253,
      "العربي": 1254,
      "##ملة": 1255,
      "##هور": 1256,
      "##اث": 1257,
      "##ليج": 1258,
      "مختلف": 1259,
      "##ابعة": 1260,
      "فه": 1261,
      "الخارجية": 1262,
      "##قاط": 1263,
      "##وسط": 1264,
      "القانون": 1265,
      "الخط": 1266,
      "عاما": 1267,
      "بي": 1268,
      "##حل": 1269,
      "##رحلة": 1270,
      "##ائر": 1271,
      "##روف": 1272,
      "كث": 1273,
      "##أت": 1274,
      "تو": 1275,
      "ألف": 1276,
      "##نين": 1277,
      "طريق": 1278,
      "المخ": 1279,
      "الجز": 1280,
      "##حية": 1281,
      "المملكة": 1282,
      "سنة": 1283,
      "##ابية": 1284,
      "الار": 1285,
      "12": 1286,
      "يس": 1287,
      "##جمع": 1288,
      "تب": 1289,
      "##شي": 1290,
      "##طية": 1291,
      "عشر": 1292,
      "الشركة": 1293,
      "##وضوع": 1294,
      "##تين": 1295,
      "##ضور": 1296,
      "المقبل": 1297,
      "إدارة": 1298,
      "##علم": 1299,
      "##ويل": 1300,
      "##هاب": 1301,
      "كبير": 1302,
      "المجتمع": 1303,
      "##طلاق": 1304,
      "وعلى": 1305,
      "الأمر": 1306,
      "الدولي": 1307,
      "##خدام": 1308,
      "لدى": 1309,
      "عملية": 1310,
      "الجه": 1311,
      "##طلق": 1312,
      "ضمن": 1313,
      "##وني": 1314,
      "##مان": 1315,
      "##طات": 1316,
      "##ئاسة": 1317,
      "والش": 1318,
      "اس": 1319,
      "##وضح": 1320,
      "اللاعب": 1321,
      "المواطن": 1322,
      "الشباب": 1323,
      "السياسية": 1324,
      "أجل": 1325,
      "##راسة": 1326,
      "##ادات": 1327,
      "أح": 1328,
      "##ياء": 1329,
      "وقت": 1330,
      "##ومة": 1331,
      "وأكد": 1332,
      "المالية": 1333,
      "أث": 1334,
      "الرو": 1335,
      "مجال": 1336,
      "##يدا": 1337,
      "كبيرة": 1338,
      "تل": 1339,
      "للع": 1340,
      "بص": 1341,
      "مركز": 1342,
      "اخت": 1343,
      "الثال": 1344,
      "##اهر": 1345,
      "التد": 1346,
      "للش": 1347,
      "##غل": 1348,
      "أد": 1349,
      "مخ": 1350,
      "يجب": 1351,
      "مستوى": 1352,
      "عقد": 1353,
      "المق": 1354,
      "##حق": 1355,
      "بج": 1356,
      "الإم": 1357,
      "عل": 1358,
      "لجنة": 1359,
      "الحد": 1360,
      "حل": 1361,
      "##جاز": 1362,
      "أهم": 1363,
      "محا": 1364,
      "القي": 1365,
      "ترك": 1366,
      "الداخل": 1367,
      "##هيم": 1368,
      "##قرار": 1369,
      "##احب": 1370,
      "جاء": 1371,
      "##تر": 1372,
      "##ائرة": 1373,
      "وهذا": 1374,
      "شي": 1375,
      "##واصل": 1376,
      "الخاصة": 1377,
      "##ظهر": 1378,
      "النف": 1379,
      "يؤ": 1380,
      "##طب": 1381,
      "مل": 1382,
      "وعد": 1383,
      "أنها": 1384,
      "##جات": 1385,
      "##اقة": 1386,
      "طال": 1387,
      "منه": 1388,
      "قرار": 1389,
      "##زال": 1390,
      "##صار": 1391,
      "##بدأ": 1392,
      "البلاد": 1393,
      "اب": 1394,
      "##طفال": 1395,
      "شر": 1396,
      "##تيجة": 1397,
      "وضع": 1398,
      "اجتما": 1399,
      "البن": 1400,
      "##ربة": 1401,
      "بو": 1402,
      "##عتبر": 1403,
      "##وء": 1404,
      "الولايات": 1405,
      "نش": 1406,
      "القطاع": 1407,
      "##يني": 1408,
      "البلد": 1409,
      "جانب": 1410,
      "واحد": 1411,
      "##سى": 1412,
      "##صوص": 1413,
      "الوطنية": 1414,
      "العديد": 1415,
      "امس": 1416,
      "وتم": 1417,
      "الجيش": 1418,
      "##جاه": 1419,
      "علا": 1420,
      "##طلب": 1421,
      "لو": 1422,
      "مشيرا": 1423,
      "سنوات": 1424,
      "##سرائيلي": 1425,
      "در": 1426,
      "صف": 1427,
      "الثانية": 1428,
      "##اهد": 1429,
      "##نامج": 1430,
      "##سسة": 1431,
      "##جوم": 1432,
      "قدم": 1433,
      "البحر": 1434,
      "بلغ": 1435,
      "القاد": 1436,
      "##اعد": 1437,
      "##شة": 1438,
      "لما": 1439,
      "##كات": 1440,
      "##هداف": 1441,
      "التعليم": 1442,
      "##سسات": 1443,
      "الجديد": 1444,
      "حر": 1445,
      "##تهم": 1446,
      "نفسه": 1447,
      "نف": 1448,
      "الانتخابات": 1449,
      "لش": 1450,
      "عبدالعزيز": 1451,
      "##بير": 1452,
      "جز": 1453,
      "حالة": 1454,
      "##هتم": 1455,
      "##داد": 1456,
      "مجموعة": 1457,
      "مشروع": 1458,
      "##ائب": 1459,
      "حزب": 1460,
      "##شح": 1461,
      "للد": 1462,
      "جديد": 1463,
      "##ئي": 1464,
      "التص": 1465,
      "##الى": 1466,
      "البط": 1467,
      "##وبة": 1468,
      "السي": 1469,
      "النظام": 1470,
      "بيان": 1471,
      "##ادث": 1472,
      "##ائق": 1473,
      "##امي": 1474,
      "بدا": 1475,
      "وكانت": 1476,
      "ومع": 1477,
      "الفرن": 1478,
      "الأح": 1479,
      "##قول": 1480,
      "العد": 1481,
      "##اك": 1482,
      "##مس": 1483,
      "##مي": 1484,
      "التأ": 1485,
      "الإعلام": 1486,
      "الامير": 1487,
      "التق": 1488,
      "##قرير": 1489,
      "##انة": 1490,
      "مسؤول": 1491,
      "##هن": 1492,
      "لهم": 1493,
      "11": 1494,
      "##ليا": 1495,
      "اللبناني": 1496,
      "الحرب": 1497,
      "لع": 1498,
      "الوا": 1499,
      "شهر": 1500,
      "الخليج": 1501,
      "##مود": 1502,
      "##سلحة": 1503,
      "##ضمن": 1504,
      "دولة": 1505,
      "##نف": 1506,
      "الكت": 1507,
      "عرض": 1508,
      "الاول": 1509,
      "##صادر": 1510,
      "##ؤون": 1511,
      "السف": 1512,
      "##ائج": 1513,
      "إسرائيل": 1514,
      "عض": 1515,
      "مج": 1516,
      "العالمية": 1517,
      "##وبية": 1518,
      "قطاع": 1519,
      "##علان": 1520,
      "##الف": 1521,
      "الفترة": 1522,
      "الكثير": 1523,
      "وأشار": 1524,
      "##جيل": 1525,
      "##شاريع": 1526,
      "المباراة": 1527,
      "التش": 1528,
      "عد": 1529,
      "هل": 1530,
      "فع": 1531,
      "لدي": 1532,
      "الفر": 1533,
      "##فظ": 1534,
      "اع": 1535,
      "العلم": 1536,
      "الثلاث": 1537,
      "##يون": 1538,
      "##نع": 1539,
      "25": 1540,
      "تقدم": 1541,
      "الداخلية": 1542,
      "##علق": 1543,
      "والق": 1544,
      "##ضح": 1545,
      "##زام": 1546,
      "18": 1547,
      "هد": 1548,
      "##يك": 1549,
      "##لات": 1550,
      "المغ": 1551,
      "##ابت": 1552,
      "سوريا": 1553,
      "تحقيق": 1554,
      "نقطة": 1555,
      "حسن": 1556,
      "عدة": 1557,
      "##باح": 1558,
      "##دمات": 1559,
      "##ولات": 1560,
      "##لمان": 1561,
      "وغير": 1562,
      "بار": 1563,
      "الأن": 1564,
      "##هورية": 1565,
      "بير": 1566,
      "##باط": 1567,
      "المصري": 1568,
      "السن": 1569,
      "نا": 1570,
      "الناس": 1571,
      "التعاون": 1572,
      "والس": 1573,
      "المسؤول": 1574,
      "قانون": 1575,
      "##كلة": 1576,
      "##ئية": 1577,
      "##شاء": 1578,
      "المعل": 1579,
      "تاريخ": 1580,
      "##ارب": 1581,
      "النها": 1582,
      "##وجد": 1583,
      "##خرج": 1584,
      "باسم": 1585,
      "فال": 1586,
      "##براهيم": 1587,
      "##هاز": 1588,
      "الدفاع": 1589,
      "نهاية": 1590,
      "##ادل": 1591,
      "أص": 1592,
      "الظ": 1593,
      "الجديدة": 1594,
      "##قم": 1595,
      "##ديث": 1596,
      "ذات": 1597,
      "##وث": 1598,
      "##تل": 1599,
      "أف": 1600,
      "##خول": 1601,
      "القد": 1602,
      "أج": 1603,
      "##قافة": 1604,
      "مك": 1605,
      "وجه": 1606,
      "بك": 1607,
      "مليار": 1608,
      "ريال": 1609,
      "مساء": 1610,
      "أل": 1611,
      "شار": 1612,
      "وإن": 1613,
      "##جب": 1614,
      "صاحب": 1615,
      "##كيل": 1616,
      "توا": 1617,
      "##ورا": 1618,
      "والذي": 1619,
      "تك": 1620,
      "المصرية": 1621,
      "القدم": 1622,
      "30": 1623,
      "السلام": 1624,
      "تعد": 1625,
      "جدا": 1626,
      "##جراءات": 1627,
      "##غيير": 1628,
      "الاخ": 1629,
      "باست": 1630,
      "##عاية": 1631,
      "##رس": 1632,
      "الخم": 1633,
      "##طان": 1634,
      "##قية": 1635,
      "الترك": 1636,
      "##جاح": 1637,
      "ذكر": 1638,
      "بينما": 1639,
      "##هير": 1640,
      "##ثمار": 1641,
      "##املة": 1642,
      "ثلاثة": 1643,
      "مرة": 1644,
      "خالد": 1645,
      "الطبي": 1646,
      "خارج": 1647,
      "13": 1648,
      "##مت": 1649,
      "تحد": 1650,
      "الحكوم": 1651,
      "##عين": 1652,
      "##ريقة": 1653,
      "الاد": 1654,
      "##لين": 1655,
      "##سكرية": 1656,
      "##ضايا": 1657,
      "##ثنين": 1658,
      "##شفى": 1659,
      "##هرب": 1660,
      "##ادية": 1661,
      "##جاوز": 1662,
      "المعار": 1663,
      "حما": 1664,
      "المدينة": 1665,
      "الشرطة": 1666,
      "طلب": 1667,
      "وقالت": 1668,
      "ويت": 1669,
      "ساب": 1670,
      "برنامج": 1671,
      "والف": 1672,
      "##انى": 1673,
      "الشركات": 1674,
      "##ظاهر": 1675,
      "##احة": 1676,
      "الاس": 1677,
      "##لاب": 1678,
      "##جهزة": 1679,
      "احد": 1680,
      "سم": 1681,
      "##فاء": 1682,
      "يف": 1683,
      "##كار": 1684,
      "التط": 1685,
      "عمر": 1686,
      "##ئات": 1687,
      "السوق": 1688,
      "بالأ": 1689,
      "##يدي": 1690,
      "مبا": 1691,
      "النائ": 1692,
      "وبعد": 1693,
      "أغ": 1694,
      "وسي": 1695,
      "نسبة": 1696,
      "للن": 1697,
      "الهيئة": 1698,
      "اللبنانية": 1699,
      "سمو": 1700,
      "##نتاج": 1701,
      "##يار": 1702,
      "أعمال": 1703,
      "حاليا": 1704,
      "تخ": 1705,
      "##مدة": 1706,
      "نقل": 1707,
      "أمن": 1708,
      "اللقاء": 1709,
      "كم": 1710,
      "جني": 1711,
      "السوري": 1712,
      "لكل": 1713,
      "##دمة": 1714,
      "بنسبة": 1715,
      "حركة": 1716,
      "أخ": 1717,
      "##اخ": 1718,
      "##فية": 1719,
      "##صال": 1720,
      "يقول": 1721,
      "رغم": 1722,
      "##ساس": 1723,
      "##صابة": 1724,
      "الحياة": 1725,
      "لان": 1726,
      "##راع": 1727,
      "والث": 1728,
      "اللي": 1729,
      "المنتخب": 1730,
      "المجال": 1731,
      "كيف": 1732,
      "بان": 1733,
      "مؤك": 1734,
      "التو": 1735,
      "الدور": 1736,
      "عق": 1737,
      "القاهرة": 1738,
      "السياسي": 1739,
      "رس": 1740,
      "اخ": 1741,
      "##ريم": 1742,
      "الأخيرة": 1743,
      "للإ": 1744,
      "بناء": 1745,
      "مه": 1746,
      "الرسم": 1747,
      "والب": 1748,
      "إنه": 1749,
      "والص": 1750,
      "الآخر": 1751,
      "الدست": 1752,
      "##غا": 1753,
      "##ربي": 1754,
      "##رام": 1755,
      "وصل": 1756,
      "مقابل": 1757,
      "الصنا": 1758,
      "أكبر": 1759,
      "الحزب": 1760,
      "وليس": 1761,
      "##قامة": 1762,
      "اقت": 1763,
      "جل": 1764,
      "النائب": 1765,
      "وث": 1766,
      "##جي": 1767,
      "##قليم": 1768,
      "##ادت": 1769,
      "نائب": 1770,
      "قوات": 1771,
      "بات": 1772,
      "القوات": 1773,
      "القب": 1774,
      "بكل": 1775,
      "الاقت": 1776,
      "##شرين": 1777,
      "سر": 1778,
      "موقع": 1779,
      "199": 1780,
      "كافة": 1781,
      "##طيع": 1782,
      "16": 1783,
      "لاعب": 1784,
      "##ماع": 1785,
      "##ياب": 1786,
      "لمن": 1787,
      "واحدة": 1788,
      "##ويات": 1789,
      "وكذلك": 1790,
      "##مرار": 1791,
      "الشخص": 1792,
      "مكان": 1793,
      "عب": 1794,
      "##راب": 1795,
      "الديم": 1796,
      "##خاص": 1797,
      "القرار": 1798,
      "تنفيذ": 1799,
      "##تا": 1800,
      "شهد": 1801,
      "##اصمة": 1802,
      "##هرجان": 1803,
      "##وضع": 1804,
      "علم": 1805,
      "مباراة": 1806,
      "يحت": 1807,
      "الاعت": 1808,
      "تقديم": 1809,
      "رم": 1810,
      "دعم": 1811,
      "الجما": 1812,
      "وبين": 1813,
      "##سرائيلية": 1814,
      "##ونية": 1815,
      "نظام": 1816,
      "رح": 1817,
      "بقي": 1818,
      "فترة": 1819,
      "لق": 1820,
      "ضر": 1821,
      "##فاوض": 1822,
      "المحت": 1823,
      "##اعات": 1824,
      "##راتيج": 1825,
      "تؤ": 1826,
      "المرحلة": 1827,
      "##اجة": 1828,
      "سعود": 1829,
      "صالح": 1830,
      "##ستان": 1831,
      "تصري": 1832,
      "رسم": 1833,
      "نادي": 1834,
      "الأحد": 1835,
      "مرت": 1836,
      "التس": 1837,
      "##قق": 1838,
      "دم": 1839,
      "##خصص": 1840,
      "بس": 1841,
      "بغ": 1842,
      "الشم": 1843,
      "ظل": 1844,
      "ويع": 1845,
      "وسط": 1846,
      "##ائد": 1847,
      "الخاص": 1848,
      "##بيق": 1849,
      "##ونة": 1850,
      "##صور": 1851,
      "الاقتصادية": 1852,
      "الإمارات": 1853,
      "حسين": 1854,
      "##ناول": 1855,
      "اسم": 1856,
      "بف": 1857,
      "17": 1858,
      "##شد": 1859,
      "هيئة": 1860,
      "##شن": 1861,
      "ني": 1862,
      "##ناق": 1863,
      "السعودي": 1864,
      "##وفير": 1865,
      "##أي": 1866,
      "##اده": 1867,
      "لاست": 1868,
      "المشروع": 1869,
      "مف": 1870,
      "##ذر": 1871,
      "بداية": 1872,
      "للق": 1873,
      "رفض": 1874,
      "##سباب": 1875,
      "حم": 1876,
      "لس": 1877,
      "التنفيذ": 1878,
      "##جار": 1879,
      "الفلسطينية": 1880,
      "##حقيق": 1881,
      "لك": 1882,
      "بشأن": 1883,
      "عالم": 1884,
      "آل": 1885,
      "الجامعة": 1886,
      "المواطنين": 1887,
      "حقوق": 1888,
      "اح": 1889,
      "##ادى": 1890,
      "هم": 1891,
      "##جميع": 1892,
      "##رم": 1893,
      "جامعة": 1894,
      "##صلاح": 1895,
      "لب": 1896,
      "##شق": 1897,
      "استخدام": 1898,
      "##طلا": 1899,
      "منهم": 1900,
      "##عرض": 1901,
      "##راجع": 1902,
      "##ائزة": 1903,
      "الأعمال": 1904,
      "##هتمام": 1905,
      "##روج": 1906,
      "##عبة": 1907,
      "والاست": 1908,
      "فض": 1909,
      "إذ": 1910,
      "دين": 1911,
      "ملا": 1912,
      "بالنسبة": 1913,
      "المط": 1914,
      "##رها": 1915,
      "المسلم": 1916,
      "المقب": 1917,
      "يب": 1918,
      "حسب": 1919,
      "الجمعية": 1920,
      "##ؤلاء": 1921,
      "##ولي": 1922,
      "##يرية": 1923,
      "##تيار": 1924,
      "##صالات": 1925,
      "الحكم": 1926,
      "الحالي": 1927,
      "رأس": 1928,
      "أيام": 1929,
      "##عو": 1930,
      "##فراد": 1931,
      "يأ": 1932,
      "اش": 1933,
      "السو": 1934,
      "##فتت": 1935,
      "##ربعة": 1936,
      "صد": 1937,
      "النق": 1938,
      "##هاد": 1939,
      "##ناصر": 1940,
      "تعرض": 1941,
      "##هي": 1942,
      "المشت": 1943,
      "الخام": 1944,
      "سعد": 1945,
      "الحق": 1946,
      "أفضل": 1947,
      "انها": 1948,
      "الشع": 1949,
      "##ائي": 1950,
      "##ورات": 1951,
      "##برز": 1952,
      "الأمريكية": 1953,
      "والخ": 1954,
      "يا": 1955,
      "الإسلامية": 1956,
      "##قرا": 1957,
      "جد": 1958,
      "##باء": 1959,
      "اد": 1960,
      "فرن": 1961,
      "الوزارة": 1962,
      "##علنت": 1963,
      "تنظيم": 1964,
      "##صحاب": 1965,
      "##ظف": 1966,
      "المؤتمر": 1967,
      "نج": 1968,
      "وأوضح": 1969,
      "نتيجة": 1970,
      "العلاقات": 1971,
      "الأش": 1972,
      "مب": 1973,
      "##اليات": 1974,
      "مؤكدا": 1975,
      "لر": 1976,
      "التاريخ": 1977,
      "خصوص": 1978,
      "احمد": 1979,
      "لقد": 1980,
      "بالإضافة": 1981,
      "##طع": 1982,
      "النادي": 1983,
      "جهة": 1984,
      "فل": 1985,
      "##قتل": 1986,
      "##مبر": 1987,
      "سليم": 1988,
      "إم": 1989,
      "ارتفاع": 1990,
      "##اي": 1991,
      "الثالث": 1992,
      "##منطقة": 1993,
      "رجال": 1994,
      "الجميع": 1995,
      "ثلاث": 1996,
      "##يام": 1997,
      "اليمن": 1998,
      "##تمد": 1999,
      "##يص": 2000,
      "زيادة": 2001,
      "السيد": 2002,
      "الشهر": 2003,
      "يقوم": 2004,
      "الجمعة": 2005,
      "نحن": 2006,
      "كون": 2007,
      "وتن": 2008,
      "##شل": 2009,
      "والج": 2010,
      "الماضية": 2011,
      "فهد": 2012,
      "##صيل": 2013,
      "عنه": 2014,
      "مبارك": 2015,
      "##اتهم": 2016,
      "##عليم": 2017,
      "##ضيف": 2018,
      "السلطة": 2019,
      "##ولوج": 2020,
      "مساعد": 2021,
      "الاجتماعية": 2022,
      "قدر": 2023,
      "##واج": 2024,
      "##ليف": 2025,
      "امام": 2026,
      "##كام": 2027,
      "##ناة": 2028,
      "##وجود": 2029,
      "##وسف": 2030,
      "##رفع": 2031,
      "##وروبي": 2032,
      "أمير": 2033,
      "أثناء": 2034,
      "الإدارة": 2035,
      "فلسطين": 2036,
      "المل": 2037,
      "دائ": 2038,
      "##افي": 2039,
      "##بدو": 2040,
      "##هود": 2041,
      "يون": 2042,
      "##عوة": 2043,
      "سواء": 2044,
      "الإنسان": 2045,
      "حصل": 2046,
      "أعضاء": 2047,
      "رب": 2048,
      "لقاء": 2049,
      "الشرقية": 2050,
      "##برى": 2051,
      "مث": 2052,
      "##راقي": 2053,
      "الخميس": 2054,
      "##سكري": 2055,
      "الاتفاق": 2056,
      "##هب": 2057,
      "أعلن": 2058,
      "المشاركة": 2059,
      "المرأة": 2060,
      "الثقاف": 2061,
      "مسا": 2062,
      "المدر": 2063,
      "##قبال": 2064,
      "قب": 2065,
      "ليست": 2066,
      "الدم": 2067,
      "##راكز": 2068,
      "الجمهورية": 2069,
      "الأه": 2070,
      "جنوب": 2071,
      "الأخرى": 2072,
      "الوضع": 2073,
      "ير": 2074,
      "طبي": 2075,
      "دبي": 2076,
      "وط": 2077,
      "حا": 2078,
      "بيروت": 2079,
      "لص": 2080,
      "نس": 2081,
      "عمليات": 2082,
      "الاسلام": 2083,
      "الصحة": 2084,
      "جان": 2085,
      "##ندوق": 2086,
      "البريط": 2087,
      "معل": 2088,
      "بلا": 2089,
      "سجل": 2090,
      "السبت": 2091,
      "##قرر": 2092,
      "المعلومات": 2093,
      "يل": 2094,
      "الموسم": 2095,
      "ضرورة": 2096,
      "المقا": 2097,
      "##هيل": 2098,
      "جما": 2099,
      "##صرف": 2100,
      "المقبلة": 2101,
      "أى": 2102,
      "تقوم": 2103,
      "الأد": 2104,
      "يكن": 2105,
      "##صادي": 2106,
      "##يق": 2107,
      "لكرة": 2108,
      "كأس": 2109,
      "أر": 2110,
      "حكومة": 2111,
      "تتم": 2112,
      "العاصمة": 2113,
      "##عيش": 2114,
      "الحدود": 2115,
      "اكثر": 2116,
      "واعت": 2117,
      "ينا": 2118,
      "##صلحة": 2119,
      "اجتماع": 2120,
      "الكبير": 2121,
      "فأ": 2122,
      "لهذا": 2123,
      "المحكمة": 2124,
      "##اعر": 2125,
      "##زن": 2126,
      "الحل": 2127,
      "##غب": 2128,
      "##فيق": 2129,
      "للس": 2130,
      "##قام": 2131,
      "نوع": 2132,
      "السورية": 2133,
      "وو": 2134,
      "الأسبوع": 2135,
      "المناطق": 2136,
      "##حب": 2137,
      "##ساسية": 2138,
      "##ابي": 2139,
      "سعيد": 2140,
      "إد": 2141,
      "##وغ": 2142,
      "وض": 2143,
      "##طلع": 2144,
      "رؤ": 2145,
      "يعد": 2146,
      "الأرض": 2147,
      "##كبر": 2148,
      "المال": 2149,
      "##ظة": 2150,
      "##اعدة": 2151,
      "تغ": 2152,
      "الزي": 2153,
      "منا": 2154,
      "##وبر": 2155,
      "بالع": 2156,
      "السود": 2157,
      "مصادر": 2158,
      "بهدف": 2159,
      "الساعة": 2160,
      "##ابه": 2161,
      "محمود": 2162,
      "##لبية": 2163,
      "##فى": 2164,
      "فتح": 2165,
      "خصوصا": 2166,
      "فان": 2167,
      "شيء": 2168,
      "المصرى": 2169,
      "##رية": 2170,
      "بدأت": 2171,
      "##روض": 2172,
      "خم": 2173,
      "##فيات": 2174,
      "بأنه": 2175,
      "##ؤال": 2176,
      "##رفض": 2177,
      "##فقة": 2178,
      "نشر": 2179,
      "##هاء": 2180,
      "اللاعبين": 2181,
      "50": 2182,
      "اذا": 2183,
      "وذكر": 2184,
      "هؤلاء": 2185,
      "يخ": 2186,
      "عضو": 2187,
      "موس": 2188,
      "##يرات": 2189,
      "وتع": 2190,
      "المستقبل": 2191,
      "##وروبا": 2192,
      "قص": 2193,
      "##ينية": 2194,
      "الزرا": 2195,
      "جنيه": 2196,
      "##ائف": 2197,
      "إضافة": 2198,
      "البي": 2199,
      "الثلاثاء": 2200,
      "##راح": 2201,
      "معه": 2202,
      "لاف": 2203,
      "معد": 2204,
      "قضية": 2205,
      "وتش": 2206,
      "##ناعة": 2207,
      "##يزة": 2208,
      "لنا": 2209,
      "بعيد": 2210,
      "طالب": 2211,
      "##قص": 2212,
      "شب": 2213,
      "##غط": 2214,
      "الوزير": 2215,
      "حو": 2216,
      "##خرا": 2217,
      "وبالت": 2218,
      "ومد": 2219,
      "سيكون": 2220,
      "بدأ": 2221,
      "قتل": 2222,
      "##ضان": 2223,
      "##دت": 2224,
      "##وفر": 2225,
      "تطوير": 2226,
      "البعض": 2227,
      "الإخ": 2228,
      "اتفاق": 2229,
      "##عتقد": 2230,
      "##ثار": 2231,
      "الشريف": 2232,
      "##بنى": 2233,
      "عنها": 2234,
      "غزة": 2235,
      "محافظة": 2236,
      "المسا": 2237,
      "فن": 2238,
      "حمد": 2239,
      "##هام": 2240,
      "##وزيع": 2241,
      "##ادرة": 2242,
      "سين": 2243,
      "##ورى": 2244,
      "رقم": 2245,
      "##اكل": 2246,
      "المحلية": 2247,
      "24": 2248,
      "أت": 2249,
      "##طاء": 2250,
      "مرا": 2251,
      "المياه": 2252,
      "##ارق": 2253,
      "للاست": 2254,
      "هدف": 2255,
      "بلد": 2256,
      "الثورة": 2257,
      "##حص": 2258,
      "المدير": 2259,
      "لمدة": 2260,
      "##ارع": 2261,
      "بالد": 2262,
      "##حافظة": 2263,
      "صحيفة": 2264,
      "شمال": 2265,
      "##كيد": 2266,
      "##طوير": 2267,
      "القائ": 2268,
      "الطريق": 2269,
      "##حدى": 2270,
      "الاثنين": 2271,
      "حدث": 2272,
      "الخدمات": 2273,
      "توق": 2274,
      "البطولة": 2275,
      "##ابا": 2276,
      "الني": 2277,
      "##سام": 2278,
      "أمر": 2279,
      "مقر": 2280,
      "وحد": 2281,
      "دي": 2282,
      "وتت": 2283,
      "الإس": 2284,
      "ايضا": 2285,
      "##وله": 2286,
      "للر": 2287,
      "##هار": 2288,
      "خلف": 2289,
      "ظهر": 2290,
      "سوق": 2291,
      "لذلك": 2292,
      "معظم": 2293,
      "العمر": 2294,
      "نص": 2295,
      "##عاد": 2296,
      "بطولة": 2297,
      "ابن": 2298,
      "##يدان": 2299,
      "##ريبا": 2300,
      "##ابط": 2301,
      "وكل": 2302,
      "##سانية": 2303,
      "##ادم": 2304,
      "المجموعة": 2305,
      "##زية": 2306,
      "واس": 2307,
      "كثيرا": 2308,
      "الرح": 2309,
      "النو": 2310,
      "سوف": 2311,
      "##عيم": 2312,
      "التربية": 2313,
      "السمو": 2314,
      "صباح": 2315,
      "الجام": 2316,
      "مؤتمر": 2317,
      "التر": 2318,
      "الدوري": 2319,
      "النظر": 2320,
      "##وجيه": 2321,
      "سف": 2322,
      "البيان": 2323,
      "الجانب": 2324,
      "##ائلة": 2325,
      "اكت": 2326,
      "المف": 2327,
      "يوسف": 2328,
      "العل": 2329,
      "بالح": 2330,
      "##امن": 2331,
      "##فاظ": 2332,
      "الأربع": 2333,
      "البرن": 2334,
      "22": 2335,
      "البحث": 2336,
      "الصحية": 2337,
      "##ثمر": 2338,
      "وهنا": 2339,
      "##اتب": 2340,
      "##ريات": 2341,
      "شع": 2342,
      "رفع": 2343,
      "إليه": 2344,
      "الأع": 2345,
      "##راسات": 2346,
      "مصدر": 2347,
      "##امية": 2348,
      "للف": 2349,
      "تمت": 2350,
      "##ابقة": 2351,
      "##ويا": 2352,
      "العسكرية": 2353,
      "##ميل": 2354,
      "المز": 2355,
      "عشرة": 2356,
      "الأميركية": 2357,
      "##ندس": 2358,
      "بالف": 2359,
      "بالق": 2360,
      "لهذه": 2361,
      "واضاف": 2362,
      "الجل": 2363,
      "##ظبي": 2364,
      "البرنامج": 2365,
      "21": 2366,
      "##انا": 2367,
      "الحوار": 2368,
      "يص": 2369,
      "أهمية": 2370,
      "زوج": 2371,
      "مكتب": 2372,
      "المب": 2373,
      "##ريمة": 2374,
      "##وبات": 2375,
      "##غيرة": 2376,
      "##ابر": 2377,
      "قائلا": 2378,
      "العن": 2379,
      "النفط": 2380,
      "الاولى": 2381,
      "شركات": 2382,
      "##حتى": 2383,
      "البد": 2384,
      "##مدينة": 2385,
      "مز": 2386,
      "لج": 2387,
      "العراقي": 2388,
      "##قه": 2389,
      "العملية": 2390,
      "##لفزي": 2391,
      "موضوع": 2392,
      "##طا": 2393,
      "##قدر": 2394,
      "##ويتي": 2395,
      "المسلمين": 2396,
      "بهذا": 2397,
      "العليا": 2398,
      "القص": 2399,
      "مار": 2400,
      "شعب": 2401,
      "نتائج": 2402,
      "فوز": 2403,
      "##منت": 2404,
      "أنا": 2405,
      "إطار": 2406,
      "##ستر": 2407,
      "##قدمة": 2408,
      "##تنا": 2409,
      "للج": 2410,
      "بيت": 2411,
      "اغ": 2412,
      "يعمل": 2413,
      "الاجتماع": 2414,
      "مض": 2415,
      "##ائع": 2416,
      "وتح": 2417,
      "الحكومية": 2418,
      "حيات": 2419,
      "وست": 2420,
      "المعارضة": 2421,
      "رأ": 2422,
      "##اند": 2423,
      "##اطق": 2424,
      "##يره": 2425,
      "الموضوع": 2426,
      "##جموع": 2427,
      "اتحاد": 2428,
      "الفرنسي": 2429,
      "##شنطن": 2430,
      "المرت": 2431,
      "الجهات": 2432,
      "وسائل": 2433,
      "طب": 2434,
      "##ويلة": 2435,
      "يعرف": 2436,
      "##يته": 2437,
      "##فد": 2438,
      "كذلك": 2439,
      "آلاف": 2440,
      "حكم": 2441,
      "##فريقيا": 2442,
      "مدى": 2443,
      "##راضي": 2444,
      "وتأ": 2445,
      "كلمة": 2446,
      "قامت": 2447,
      "وحتى": 2448,
      "##صبحت": 2449,
      "روس": 2450,
      "والك": 2451,
      "حرب": 2452,
      "الحم": 2453,
      "السلطات": 2454,
      "العالمي": 2455,
      "الانتخ": 2456,
      "##وقرا": 2457,
      "##ونس": 2458,
      "الألم": 2459,
      "كرة": 2460,
      "إس": 2461,
      "المتهم": 2462,
      "##راز": 2463,
      "والمت": 2464,
      "بالس": 2465,
      "الإد": 2466,
      "##ناف": 2467,
      "##ذار": 2468,
      "جزء": 2469,
      "##أسيس": 2470,
      "##حيح": 2471,
      "أرض": 2472,
      "التنمية": 2473,
      "23": 2474,
      "يريد": 2475,
      "كانوا": 2476,
      "الفوز": 2477,
      "ومت": 2478,
      "##الغ": 2479,
      "##حرير": 2480,
      "##ندية": 2481,
      "##سيق": 2482,
      "البنك": 2483,
      "يذكر": 2484,
      "موقف": 2485,
      "يعتبر": 2486,
      "وين": 2487,
      "بب": 2488,
      "##بيع": 2489,
      "تقرير": 2490,
      "##افية": 2491,
      "##خاذ": 2492,
      "حجم": 2493,
      "كبيرا": 2494,
      "##جاج": 2495,
      "قيمة": 2496,
      "معت": 2497,
      "##لاك": 2498,
      "يناير": 2499,
      "مناطق": 2500,
      "##سلسل": 2501,
      "##بعة": 2502,
      "وعدم": 2503,
      "ينت": 2504,
      "وفق": 2505,
      "وعن": 2506,
      "##وزارة": 2507,
      "##فاوضات": 2508,
      "امت": 2509,
      "##ثلة": 2510,
      "فوق": 2511,
      "وهم": 2512,
      "##ئول": 2513,
      "إل": 2514,
      "تحدث": 2515,
      "التف": 2516,
      "الكهرب": 2517,
      "الوح": 2518,
      "يسم": 2519,
      "##واقف": 2520,
      "القضية": 2521,
      "والر": 2522,
      "الأطفال": 2523,
      "المعا": 2524,
      "##رنت": 2525,
      "الفلسطيني": 2526,
      "المج": 2527,
      "##راتيجية": 2528,
      "##راث": 2529,
      "يعني": 2530,
      "المدني": 2531,
      "##وبي": 2532,
      "القوم": 2533,
      "نفسها": 2534,
      "وآ": 2535,
      "إيران": 2536,
      "اشت": 2537,
      "##ماية": 2538,
      "##بيا": 2539,
      "الأمنية": 2540,
      "مختلفة": 2541,
      "بخ": 2542,
      "المث": 2543,
      "عقب": 2544,
      "##باس": 2545,
      "##وروبية": 2546,
      "##اتحاد": 2547,
      "الفنان": 2548,
      "الأمم": 2549,
      "##ورد": 2550,
      "القضاء": 2551,
      "##ذب": 2552,
      "اخرى": 2553,
      "##ارنة": 2554,
      "واف": 2555,
      "##واجه": 2556,
      "##عون": 2557,
      "منظمة": 2558,
      "##قف": 2559,
      "إعادة": 2560,
      "خاص": 2561,
      "يك": 2562,
      "##ائدة": 2563,
      "بلغت": 2564,
      "بعدما": 2565,
      "##وانين": 2566,
      "الكرة": 2567,
      "قسم": 2568,
      "المطل": 2569,
      "الواقع": 2570,
      "##ثناء": 2571,
      "##نائية": 2572,
      "الحريري": 2573,
      "وغ": 2574,
      "بهذه": 2575,
      "الغربية": 2576,
      "##افحة": 2577,
      "اص": 2578,
      "الطاقة": 2579,
      "##تماد": 2580,
      "دفع": 2581,
      "##ابد": 2582,
      "##وحة": 2583,
      "إي": 2584,
      "الحا": 2585,
      "ادارة": 2586,
      "##صلة": 2587,
      "2010": 2588,
      "السابقة": 2589,
      "أسعار": 2590,
      "أبوظبي": 2591,
      "سيتم": 2592,
      "سليمان": 2593,
      "##بادرة": 2594,
      "قالت": 2595,
      "التجارية": 2596,
      "##اضي": 2597,
      "##ذك": 2598,
      "لأنه": 2599,
      "مارس": 2600,
      "الاقتصادي": 2601,
      "الرس": 2602,
      "##زين": 2603,
      "##ائه": 2604,
      "أمري": 2605,
      "أعلنت": 2606,
      "المؤسسات": 2607,
      "40": 2608,
      "وبال": 2609,
      "##كال": 2610,
      "##رز": 2611,
      "يتعلق": 2612,
      "المختلف": 2613,
      "الأب": 2614,
      "##ستاذ": 2615,
      "ألم": 2616,
      "القوى": 2617,
      "إبراهيم": 2618,
      "جعل": 2619,
      "##ارد": 2620,
      "الحركة": 2621,
      "شكل": 2622,
      "الحي": 2623,
      "##مائة": 2624,
      "التم": 2625,
      "داع": 2626,
      "##كانية": 2627,
      "الأزمة": 2628,
      "المساعد": 2629,
      "دار": 2630,
      "الأميركي": 2631,
      "بالش": 2632,
      "##ندا": 2633,
      "عليهم": 2634,
      "ناصر": 2635,
      "تشكيل": 2636,
      "##ريل": 2637,
      "100": 2638,
      "##روح": 2639,
      "##امت": 2640,
      "##رسة": 2641,
      "##ريدة": 2642,
      "حديث": 2643,
      "رد": 2644,
      "اسرائيل": 2645,
      "واشنطن": 2646,
      "##خة": 2647,
      "فهو": 2648,
      "الرغم": 2649,
      "الثالثة": 2650,
      "الشه": 2651,
      "السفير": 2652,
      "بور": 2653,
      "التحقيق": 2654,
      "##ظيف": 2655,
      "##زاب": 2656,
      "الملكي": 2657,
      "الدستور": 2658,
      "واع": 2659,
      "الأوسط": 2660,
      "الإسرائيلي": 2661,
      "المحافظة": 2662,
      "لتن": 2663,
      "منتخب": 2664,
      "##وجه": 2665,
      "##وام": 2666,
      "واض": 2667,
      "دائما": 2668,
      "##بادل": 2669,
      "عبدالرح": 2670,
      "بذلك": 2671,
      "الفني": 2672,
      "مباشرة": 2673,
      "##يلم": 2674,
      "##صاص": 2675,
      "##شطة": 2676,
      "لف": 2677,
      "تطبيق": 2678,
      "الأف": 2679,
      "محد": 2680,
      "وطن": 2681,
      "##رياض": 2682,
      "##يراني": 2683,
      "##شارة": 2684,
      "فعل": 2685,
      "198": 2686,
      "ملايين": 2687,
      "سوى": 2688,
      "العزيز": 2689,
      "##مرت": 2690,
      "##رفين": 2691,
      "المختلفة": 2692,
      "لكنه": 2693,
      "الرب": 2694,
      "##همية": 2695,
      "المرك": 2696,
      "مناف": 2697,
      "يقدم": 2698,
      "أشهر": 2699,
      "مغ": 2700,
      "مؤخرا": 2701,
      "##ارى": 2702,
      "مؤسسة": 2703,
      "المحا": 2704,
      "اول": 2705,
      "واق": 2706,
      "شك": 2707,
      "أصبح": 2708,
      "الاحتلال": 2709,
      "فرصة": 2710,
      "26": 2711,
      "سا": 2712,
      "##لائ": 2713,
      "المبا": 2714,
      "##ظار": 2715,
      "تمكن": 2716,
      "##طراف": 2717,
      "افتت": 2718,
      "##جرة": 2719,
      "##امين": 2720,
      "جو": 2721,
      "الفنية": 2722,
      "المستوى": 2723,
      "لعد": 2724,
      "##فتح": 2725,
      "تركيا": 2726,
      "##جع": 2727,
      "##ألة": 2728,
      "موض": 2729,
      "جمعية": 2730,
      "الأربعاء": 2731,
      "##هاجم": 2732,
      "السنة": 2733,
      "وفقا": 2734,
      "اما": 2735,
      "شأن": 2736,
      "مواجهة": 2737,
      "الهلال": 2738,
      "كتب": 2739,
      "الحديث": 2740,
      "يوجد": 2741,
      "##فذ": 2742,
      "مشت": 2743,
      "اللواء": 2744,
      "##ارته": 2745,
      "الإسرائيلية": 2746,
      "الدورة": 2747,
      "مكت": 2748,
      "النواب": 2749,
      "إخ": 2750,
      "##روط": 2751,
      "الاح": 2752,
      "سير": 2753,
      "وفى": 2754,
      "الفن": 2755,
      "الهدف": 2756,
      "##روب": 2757,
      "##بلوما": 2758,
      "الحرمين": 2759,
      "المنظمة": 2760,
      "محافظ": 2761,
      "الطلاب": 2762,
      "##كب": 2763,
      "زيارة": 2764,
      "##افع": 2765,
      "سلام": 2766,
      "المشاريع": 2767,
      "الياب": 2768,
      "##واع": 2769,
      "##قطاع": 2770,
      "##رهاب": 2771,
      "الإخوان": 2772,
      "مهمة": 2773,
      "فرنسا": 2774,
      "##طفى": 2775,
      "كنت": 2776,
      "وصف": 2777,
      "السابع": 2778,
      "إحدى": 2779,
      "السيارات": 2780,
      "خلالها": 2781,
      "دمشق": 2782,
      "##بارات": 2783,
      "الثقافة": 2784,
      "وير": 2785,
      "خطة": 2786,
      "جهود": 2787,
      "##صدار": 2788,
      "##وره": 2789,
      "التقرير": 2790,
      "وانت": 2791,
      "دخل": 2792,
      "تحمل": 2793,
      "الديمقرا": 2794,
      "##زيادة": 2795,
      "خدمة": 2796,
      "تصل": 2797,
      "الاعلام": 2798,
      "##حان": 2799,
      "البشر": 2800,
      "27": 2801,
      "البرلمان": 2802,
      "الاجتماعي": 2803,
      "المؤسسة": 2804,
      "تكن": 2805,
      "تعمل": 2806,
      "2011": 2807,
      "##لكتر": 2808,
      "كي": 2809,
      "وغيرها": 2810,
      "انتها": 2811,
      "محاولة": 2812,
      "##ائة": 2813,
      "##ريض": 2814,
      "برئاسة": 2815,
      "##خصصة": 2816,
      "##عامل": 2817,
      "كال": 2818,
      "الجاري": 2819,
      "عبدالرحمن": 2820,
      "تز": 2821,
      "##اديم": 2822,
      "مرحلة": 2823,
      "سلطان": 2824,
      "ويم": 2825,
      "وكالة": 2826,
      "##ندي": 2827,
      "المهندس": 2828,
      "##ورج": 2829,
      "الجهاز": 2830,
      "فا": 2831,
      "رمضان": 2832,
      "السين": 2833,
      "الأمريكي": 2834,
      "##اية": 2835,
      "كلم": 2836,
      "##كين": 2837,
      "سبيل": 2838,
      "نصف": 2839,
      "##فاة": 2840,
      "الصف": 2841,
      "##حاول": 2842,
      "نع": 2843,
      "أقل": 2844,
      "كر": 2845,
      "المرض": 2846,
      "حمل": 2847,
      "##منى": 2848,
      "والتن": 2849,
      "الحصول": 2850,
      "28": 2851,
      "التعامل": 2852,
      "عين": 2853,
      "##ريع": 2854,
      "##اتي": 2855,
      "دراسة": 2856,
      "والط": 2857,
      "عز": 2858,
      "##يقة": 2859,
      "بحث": 2860,
      "خمسة": 2861,
      "الأخير": 2862,
      "المدرب": 2863,
      "بث": 2864,
      "##ليق": 2865,
      "##صيد": 2866,
      "##داول": 2867,
      "قوة": 2868,
      "المخت": 2869,
      "##كى": 2870,
      "الفرنسية": 2871,
      "والتعليم": 2872,
      "الرسمية": 2873,
      "بينهم": 2874,
      "القادم": 2875,
      "##احية": 2876,
      "يمثل": 2877,
      "روسيا": 2878,
      "الاستثمار": 2879,
      "##جئ": 2880,
      "وبالتالي": 2881,
      "##قوم": 2882,
      "انتخابات": 2883,
      "قيام": 2884,
      "سعر": 2885,
      "الكتاب": 2886,
      "تحر": 2887,
      "##عاب": 2888,
      "ورئيس": 2889,
      "القرن": 2890,
      "##غيل": 2891,
      "##ارا": 2892,
      "الساد": 2893,
      "نقاط": 2894,
      "##فادة": 2895,
      "2008": 2896,
      "مضي": 2897,
      "الاخت": 2898,
      "تفا": 2899,
      "الكب": 2900,
      "المرا": 2901,
      "المئة": 2902,
      "قل": 2903,
      "اقتصاد": 2904,
      "وراء": 2905,
      "##قلت": 2906,
      "سيد": 2907,
      "الحالية": 2908,
      "الاسرائيلي": 2909,
      "2012": 2910,
      "ند": 2911,
      "باعت": 2912,
      "##وعية": 2913,
      "سيارة": 2914,
      "اختيار": 2915,
      "الكويتي": 2916,
      "##ضائية": 2917,
      "السب": 2918,
      "##بيب": 2919,
      "##رين": 2920,
      "##ولت": 2921,
      "الصين": 2922,
      "وعند": 2923,
      "الاميركية": 2924,
      "##وارد": 2925,
      "بدء": 2926,
      "الموقع": 2927,
      "إيج": 2928,
      "##شاط": 2929,
      "كتاب": 2930,
      "##ساب": 2931,
      "دخول": 2932,
      "ساعة": 2933,
      "الأوروبي": 2934,
      "##ريعة": 2935,
      "##وضاع": 2936,
      "شه": 2937,
      "العراقية": 2938,
      "كثيرة": 2939,
      "##ريبة": 2940,
      "تماما": 2941,
      "التجارة": 2942,
      "##مار": 2943,
      "##فال": 2944,
      "الكبرى": 2945,
      "اجل": 2946,
      "استعداد": 2947,
      "##ساسي": 2948,
      "##قوق": 2949,
      "##سح": 2950,
      "المرشح": 2951,
      "يصل": 2952,
      "التابعة": 2953,
      "##شا": 2954,
      "المعت": 2955,
      "الطب": 2956,
      "##صاب": 2957,
      "رجل": 2958,
      "قائمة": 2959,
      "مباريات": 2960,
      "##وها": 2961,
      "القادمة": 2962,
      "الوسط": 2963,
      "دوري": 2964,
      "##اسم": 2965,
      "نمو": 2966,
      "##فاض": 2967,
      "##أل": 2968,
      "صورة": 2969,
      "توفير": 2970,
      "الغذ": 2971,
      "عرف": 2972,
      "##صام": 2973,
      "سياسية": 2974,
      "##اطر": 2975,
      "الرياضية": 2976,
      "سكان": 2977,
      "الشريفين": 2978,
      "حوالي": 2979,
      "طويلة": 2980,
      "##وين": 2981,
      "أوروبا": 2982,
      "##غال": 2983,
      "يوما": 2984,
      "إليها": 2985,
      "مدرب": 2986,
      "وبد": 2987,
      "أهداف": 2988,
      "الأج": 2989,
      "بحسب": 2990,
      "يحدث": 2991,
      "حي": 2992,
      "##سلة": 2993,
      "الوحدة": 2994,
      "##الجة": 2995,
      "عددا": 2996,
      "الدراسة": 2997,
      "كامل": 2998,
      "2009": 2999,
      "تغيير": 3000,
      "شباب": 3001,
      "استمرار": 3002,
      "عناصر": 3003,
      "##قلال": 3004,
      "##سك": 3005,
      "المسؤولين": 3006,
      "تحديد": 3007,
      "##فعت": 3008,
      "المسي": 3009,
      "خادم": 3010,
      "وحدة": 3011,
      "تور": 3012,
      "نوف": 3013,
      "##جلي": 3014,
      "وجاء": 3015,
      "سموه": 3016,
      "أصحاب": 3017,
      "الهند": 3018,
      "ريا": 3019,
      "##رع": 3020,
      "##حين": 3021,
      "صوت": 3022,
      "بالمائة": 3023,
      "##بهة": 3024,
      "##شراف": 3025,
      "المحلي": 3026,
      "درجة": 3027,
      "السنوات": 3028,
      "خل": 3029,
      "تجاه": 3030,
      "ونحن": 3031,
      "تعزيز": 3032,
      "##ريا": 3033,
      "##خفض": 3034,
      "المسلحة": 3035,
      "شرق": 3036,
      "فيصل": 3037,
      "##هج": 3038,
      "البلدية": 3039,
      "تعتبر": 3040,
      "حكوم": 3041,
      "النيابة": 3042,
      "مط": 3043,
      "اف": 3044,
      "فلا": 3045,
      "المدارس": 3046,
      "##وتر": 3047,
      "تسم": 3048,
      "##ذل": 3049,
      "علينا": 3050,
      "##خصوص": 3051,
      "##ريس": 3052,
      "الاستثم": 3053,
      "197": 3054,
      "كثير": 3055,
      "الأمور": 3056,
      "البلدين": 3057,
      "الطبية": 3058,
      "35": 3059,
      "##ريك": 3060,
      "إطلاق": 3061,
      "##وجة": 3062,
      "أنهم": 3063,
      "وتس": 3064,
      "##غان": 3065,
      "إح": 3066,
      "معلومات": 3067,
      "حماس": 3068,
      "##ميم": 3069,
      "علاقة": 3070,
      "باب": 3071,
      "##وارع": 3072,
      "مفت": 3073,
      "لله": 3074,
      "##مى": 3075,
      "ابراهيم": 3076,
      "غال": 3077,
      "المحافظ": 3078,
      "##ضى": 3079,
      "خس": 3080,
      "##شرات": 3081,
      "##طالبة": 3082,
      "يعود": 3083,
      "الأرد": 3084,
      "تصريح": 3085,
      "##زع": 3086,
      "والتى": 3087,
      "##هديد": 3088,
      "##ليلة": 3089,
      "##ساد": 3090,
      "ستكون": 3091,
      "##وش": 3092,
      "كيل": 3093,
      "ربما": 3094,
      "القضايا": 3095,
      "النار": 3096,
      "سالم": 3097,
      "##ديثة": 3098,
      "##قاعد": 3099,
      "##راءة": 3100,
      "##ويض": 3101,
      "العنف": 3102,
      "##مه": 3103,
      "##تمبر": 3104,
      "يول": 3105,
      "وات": 3106,
      "##ناسبة": 3107,
      "##سد": 3108,
      "##ظل": 3109,
      "يحمل": 3110,
      "المتم": 3111,
      "بغداد": 3112,
      "الاميركي": 3113,
      "حملة": 3114,
      "نسب": 3115,
      "الأمين": 3116,
      "##ماعيل": 3117,
      "##علقة": 3118,
      "الأيام": 3119,
      "عهد": 3120,
      "حدود": 3121,
      "##يتها": 3122,
      "حفل": 3123,
      "وقع": 3124,
      "معا": 3125,
      "##كندر": 3126,
      "##ذهب": 3127,
      "##مع": 3128,
      "المادة": 3129,
      "نب": 3130,
      "سبتمبر": 3131,
      "##جين": 3132,
      "نشاط": 3133,
      "أبناء": 3134,
      "##لفت": 3135,
      "الأص": 3136,
      "كار": 3137,
      "##يبة": 3138,
      "##حاء": 3139,
      "للط": 3140,
      "العب": 3141,
      "انته": 3142,
      "وهناك": 3143,
      "بالا": 3144,
      "النساء": 3145,
      "##روس": 3146,
      "السياسة": 3147,
      "أكت": 3148,
      "وقف": 3149,
      "فاز": 3150,
      "##ذة": 3151,
      "##ياس": 3152,
      "##ديمة": 3153,
      "السر": 3154,
      "جمع": 3155,
      "الطائ": 3156,
      "مشاركة": 3157,
      "معرض": 3158,
      "نظرا": 3159,
      "مقارنة": 3160,
      "الشعبية": 3161,
      "يغ": 3162,
      "جمال": 3163,
      "##روعات": 3164,
      "الطرق": 3165,
      "صور": 3166,
      "##راقبة": 3167,
      "##نيا": 3168,
      "وصول": 3169,
      "##طنين": 3170,
      "والاج": 3171,
      "##رافق": 3172,
      "صلاح": 3173,
      "##وسي": 3174,
      "##بيه": 3175,
      "يبدو": 3176,
      "ابت": 3177,
      "حياة": 3178,
      "وهذه": 3179,
      "المك": 3180,
      "والغ": 3181,
      "ديس": 3182,
      "بالك": 3183,
      "الال": 3184,
      "##جهات": 3185,
      "##آت": 3186,
      "2006": 3187,
      "##فيد": 3188,
      "##نب": 3189,
      "الرابع": 3190,
      "الاتصالات": 3191,
      "محت": 3192,
      "الصحيفة": 3193,
      "##ولوجيا": 3194,
      "مشكلة": 3195,
      "##قيقية": 3196,
      "##طور": 3197,
      "هى": 3198,
      "مصطفى": 3199,
      "فضلا": 3200,
      "والل": 3201,
      "حضور": 3202,
      "##طلاع": 3203,
      "##جح": 3204,
      "##شيد": 3205,
      "الدعم": 3206,
      "فيلم": 3207,
      "تصريحات": 3208,
      "المستشار": 3209,
      "عيد": 3210,
      "النس": 3211,
      "##حديد": 3212,
      "الدر": 3213,
      "غدا": 3214,
      "العسكري": 3215,
      "##ليفة": 3216,
      "##خيص": 3217,
      "##غبة": 3218,
      "##تع": 3219,
      "##ورك": 3220,
      "برامج": 3221,
      "شرطة": 3222,
      "##ضب": 3223,
      "أدى": 3224,
      "بري": 3225,
      "##خدمة": 3226,
      "ضبط": 3227,
      "تمثل": 3228,
      "##وجودة": 3229,
      "العاملين": 3230,
      "وعدد": 3231,
      "طرح": 3232,
      "تقد": 3233,
      "الرق": 3234,
      "الكبيرة": 3235,
      "ويس": 3236,
      "##جمالي": 3237,
      "للب": 3238,
      "محكمة": 3239,
      "قطر": 3240,
      "##واد": 3241,
      "##الك": 3242,
      "قناة": 3243,
      "##جمات": 3244,
      "بريط": 3245,
      "منح": 3246,
      "تناول": 3247,
      "موعد": 3248,
      "رسالة": 3249,
      "المسرح": 3250,
      "لموا": 3251,
      "الكريم": 3252,
      "الامر": 3253,
      "مشاريع": 3254,
      "##ندن": 3255,
      "النمو": 3256,
      "دع": 3257,
      "مستشفى": 3258,
      "##ضرورة": 3259,
      "الجنوب": 3260,
      "غياب": 3261,
      "جانبه": 3262,
      "الرجل": 3263,
      "29": 3264,
      "##خطط": 3265,
      "##آن": 3266,
      "ميل": 3267,
      "أه": 3268,
      "الخب": 3269,
      "اج": 3270,
      "مضيفا": 3271,
      "##مرأة": 3272,
      "##طى": 3273,
      "##ارير": 3274,
      "##منة": 3275,
      "أوب": 3276,
      "فرض": 3277,
      "##ظمات": 3278,
      "##غر": 3279,
      "##وافق": 3280,
      "##منع": 3281,
      "الاشت": 3282,
      "بالر": 3283,
      "##اليا": 3284,
      "الدقيقة": 3285,
      "النقد": 3286,
      "معار": 3287,
      "مان": 3288,
      "##يلات": 3289,
      "الحرية": 3290,
      "البيئة": 3291,
      "النهائي": 3292,
      "الفلسطينيين": 3293,
      "##يسة": 3294,
      "الامن": 3295,
      "الرئيسية": 3296,
      "خص": 3297,
      "##حقا": 3298,
      "حماية": 3299,
      "البريطانية": 3300,
      "تض": 3301,
      "##ونا": 3302,
      "قائد": 3303,
      "##تما": 3304,
      "الهجوم": 3305,
      "القدس": 3306,
      "إنها": 3307,
      "مقتل": 3308,
      "المواد": 3309,
      "60": 3310,
      "الشؤون": 3311,
      "المقاومة": 3312,
      "##وخ": 3313,
      "التحرير": 3314,
      "يعيش": 3315,
      "بالج": 3316,
      "التون": 3317,
      "31": 3318,
      "وتد": 3319,
      "##راه": 3320,
      "##حول": 3321,
      "بدر": 3322,
      "المنش": 3323,
      "معها": 3324,
      "196": 3325,
      "أكتوبر": 3326,
      "##كريم": 3327,
      "الجد": 3328,
      "##ابلة": 3329,
      "##سون": 3330,
      "##صدر": 3331,
      "الادارة": 3332,
      "##كيم": 3333,
      "تجاوز": 3334,
      "##ليب": 3335,
      "لتحقيق": 3336,
      "بحيث": 3337,
      "##طباء": 3338,
      "##عبير": 3339,
      "بدون": 3340,
      "##ياجات": 3341,
      "##ساهم": 3342,
      "الطال": 3343,
      "مجد": 3344,
      "يأتي": 3345,
      "لماذا": 3346,
      "الأغ": 3347,
      "##خلص": 3348,
      "##فيف": 3349,
      "الها": 3350,
      "شخصية": 3351,
      "الطلب": 3352,
      "كلية": 3353,
      "أربعة": 3354,
      "الفيلم": 3355,
      "اللازمة": 3356,
      "##حداث": 3357,
      "##قترح": 3358,
      "إنشاء": 3359,
      "بدلا": 3360,
      "##ايد": 3361,
      "##تون": 3362,
      "أمين": 3363,
      "المتحدث": 3364,
      "بوش": 3365,
      "اعتبر": 3366,
      "##قاذ": 3367,
      "الفي": 3368,
      "##قتها": 3369,
      "##سبق": 3370,
      "لخ": 3371,
      "ديسمبر": 3372,
      "للص": 3373,
      "##واعد": 3374,
      "خدمات": 3375,
      "متن": 3376,
      "2007": 3377,
      "الجزائر": 3378,
      "دعا": 3379,
      "##لفزيون": 3380,
      "##تيب": 3381,
      "للخ": 3382,
      "##ؤسسات": 3383,
      "عنوان": 3384,
      "##جنبية": 3385,
      "الشعر": 3386,
      "ولن": 3387,
      "شخصا": 3388,
      "سورية": 3389,
      "تنت": 3390,
      "##سلوب": 3391,
      "فرص": 3392,
      "المائة": 3393,
      "##قيم": 3394,
      "قيادة": 3395,
      "##قوط": 3396,
      "##راحة": 3397,
      "بيع": 3398,
      "##واس": 3399,
      "##قاد": 3400,
      "كش": 3401,
      "المزيد": 3402,
      "تدخل": 3403,
      "##كمال": 3404,
      "##ارقة": 3405,
      "يستطيع": 3406,
      "##براير": 3407,
      "الصناعية": 3408,
      "تشهد": 3409,
      "حفظ": 3410,
      "إجراء": 3411,
      "قيم": 3412,
      "نو": 3413,
      "##ريح": 3414,
      "مايو": 3415,
      "الأز": 3416,
      "الجولة": 3417,
      "فهي": 3418,
      "النت": 3419,
      "حضر": 3420,
      "أبرز": 3421,
      "##فز": 3422,
      "حب": 3423,
      "##واز": 3424,
      "النقل": 3425,
      "##اتف": 3426,
      "ولو": 3427,
      "بينها": 3428,
      "##واية": 3429,
      "يونيو": 3430,
      "##درات": 3431,
      "##خدمات": 3432,
      "الماضى": 3433,
      "أزمة": 3434,
      "بنك": 3435,
      "المشكلة": 3436,
      "وظ": 3437,
      "##ومية": 3438,
      "شارك": 3439,
      "أعلى": 3440,
      "فبراير": 3441,
      "قاد": 3442,
      "##ادق": 3443,
      "##لبة": 3444,
      "##رتها": 3445,
      "الاع": 3446,
      "جورج": 3447,
      "الفق": 3448,
      "##ذج": 3449,
      "وتابع": 3450,
      "##حمل": 3451,
      "العلاقة": 3452,
      "غرب": 3453,
      "تراجع": 3454,
      "الانتخابية": 3455,
      "##حدد": 3456,
      "##وقات": 3457,
      "العلاج": 3458,
      "الشخصية": 3459,
      "الوصول": 3460,
      "المدرسة": 3461,
      "##لاعب": 3462,
      "بحضور": 3463,
      "كشف": 3464,
      "سبب": 3465,
      "باعتبار": 3466,
      "أشار": 3467,
      "بالل": 3468,
      "ألا": 3469,
      "واعتبر": 3470,
      "الشمالية": 3471,
      "اللغة": 3472,
      "مي": 3473,
      "المقرر": 3474,
      "حقق": 3475,
      "أصبحت": 3476,
      "تدري": 3477,
      "##هرة": 3478,
      "##شاف": 3479,
      "المفت": 3480,
      "عباس": 3481,
      "##كلفة": 3482,
      "##كنية": 3483,
      "##هلية": 3484,
      "بصورة": 3485,
      "العلمية": 3486,
      "اعتبار": 3487,
      "لافتا": 3488,
      "##اشد": 3489,
      "واله": 3490,
      "##عاقد": 3491,
      "المهرجان": 3492,
      "دينار": 3493,
      "أفراد": 3494,
      "نوفمبر": 3495,
      "منع": 3496,
      "الإلكتر": 3497,
      "جهاز": 3498,
      "المعرض": 3499,
      "ملعب": 3500,
      "##خفاض": 3501,
      "التنظيم": 3502,
      "المالي": 3503,
      "##مم": 3504,
      "##انوية": 3505,
      "القيادة": 3506,
      "الخدمة": 3507,
      "شبكة": 3508,
      "##يانا": 3509,
      "نجاح": 3510,
      "##باق": 3511,
      "الوفد": 3512,
      "قضايا": 3513,
      "سبق": 3514,
      "القاعدة": 3515,
      "##ملت": 3516,
      "مخت": 3517,
      "##بدال": 3518,
      "##ريت": 3519,
      "##50": 3520,
      "والمست": 3521,
      "القط": 3522,
      "##كندرية": 3523,
      "مرض": 3524,
      "سابق": 3525,
      "##ويد": 3526,
      "القبض": 3527,
      "جلسة": 3528,
      "الاف": 3529,
      "فهم": 3530,
      "العودة": 3531,
      "المشارك": 3532,
      "لمع": 3533,
      "##بيض": 3534,
      "بلاده": 3535,
      "عودة": 3536,
      "##غاء": 3537,
      "الرابعة": 3538,
      "##ارتفاع": 3539,
      "##ائم": 3540,
      "##حقق": 3541,
      "الخامسة": 3542,
      "منصب": 3543,
      "الديموقرا": 3544,
      "الجنوبية": 3545,
      "يجعل": 3546,
      "##انس": 3547,
      "لندن": 3548,
      "بالتعاون": 3549,
      "أداء": 3550,
      "عاد": 3551,
      "##جيع": 3552,
      "فكرة": 3553,
      "##واقعة": 3554,
      "##احث": 3555,
      "##طرة": 3556,
      "جاءت": 3557,
      "موضحا": 3558,
      "##خم": 3559,
      "السينما": 3560,
      "##ائها": 3561,
      "##وجب": 3562,
      "ار": 3563,
      "را": 3564,
      "ملف": 3565,
      "يؤكد": 3566,
      "أبد": 3567,
      "بأنها": 3568,
      "يوليو": 3569,
      "الشوط": 3570,
      "الاسلامية": 3571,
      "متر": 3572,
      "المناسبة": 3573,
      "ومح": 3574,
      "لعب": 3575,
      "مدرسة": 3576,
      "البيت": 3577,
      "##عمار": 3578,
      "مهرجان": 3579,
      "##بين": 3580,
      "مهم": 3581,
      "##منح": 3582,
      "المعد": 3583,
      "والسيا": 3584,
      "##فيين": 3585,
      "حز": 3586,
      "إنتاج": 3587,
      "قرب": 3588,
      "##نوان": 3589,
      "اند": 3590,
      "ومحمد": 3591,
      "##يرانية": 3592,
      "ومست": 3593,
      "تقول": 3594,
      "##والى": 3595,
      "الإسلامي": 3596,
      "##رباح": 3597,
      "##تهي": 3598,
      "##عاء": 3599,
      "الأعلى": 3600,
      "##رائم": 3601,
      "##جير": 3602,
      "##شروع": 3603,
      "نز": 3604,
      "از": 3605,
      "الرئا": 3606,
      "##ضاع": 3607,
      "##يانة": 3608,
      "##هدد": 3609,
      "الجزيرة": 3610,
      "##مرة": 3611,
      "##باك": 3612,
      "الكويتية": 3613,
      "##نيف": 3614,
      "##حم": 3615,
      "بول": 3616,
      "الأكثر": 3617,
      "وخاصة": 3618,
      "الصحي": 3619,
      "قوية": 3620,
      "الرئاسة": 3621,
      "2005": 3622,
      "النتائج": 3623,
      "الجهود": 3624,
      "العمال": 3625,
      "الشي": 3626,
      "##وزير": 3627,
      "##لاة": 3628,
      "مصلحة": 3629,
      "##قلة": 3630,
      "مواقع": 3631,
      "ياس": 3632,
      "هام": 3633,
      "##ئت": 3634,
      "ثانية": 3635,
      "##وسع": 3636,
      "اتخاذ": 3637,
      "إعلان": 3638,
      "ضع": 3639,
      "فك": 3640,
      "##جون": 3641,
      "ورب": 3642,
      "ويست": 3643,
      "##قيقات": 3644,
      "الرياضي": 3645,
      "الطفل": 3646,
      "ألمانيا": 3647,
      "جدة": 3648,
      "الاخيرة": 3649,
      "##كاتب": 3650,
      "ابو": 3651,
      "الموظف": 3652,
      "يوميا": 3653,
      "البناء": 3654,
      "المشترك": 3655,
      "حرص": 3656,
      "سيت": 3657,
      "المصادر": 3658,
      "الأقل": 3659,
      "شهدت": 3660,
      "المصريين": 3661,
      "##هادة": 3662,
      "ورد": 3663,
      "2013": 3664,
      "الموقف": 3665,
      "بني": 3666,
      "لديها": 3667,
      "توزيع": 3668,
      "##حايا": 3669,
      "##فعة": 3670,
      "فما": 3671,
      "مهما": 3672,
      "##جابة": 3673,
      "قرر": 3674,
      "والعمل": 3675,
      "الاش": 3676,
      "انف": 3677,
      "درهم": 3678,
      "تشكل": 3679,
      "التاس": 3680,
      "خب": 3681,
      "يحتاج": 3682,
      "لإن": 3683,
      "##قييم": 3684,
      "##جلة": 3685,
      "##طم": 3686,
      "الإرهاب": 3687,
      "##شكل": 3688,
      "فعاليات": 3689,
      "تحرير": 3690,
      "الوحيد": 3691,
      "##ثمرين": 3692,
      "الغاز": 3693,
      "ساعات": 3694,
      "يشكل": 3695,
      "##امنة": 3696,
      "التنفيذي": 3697,
      "جميعا": 3698,
      "صدر": 3699,
      "انتخ": 3700,
      "بلاد": 3701,
      "دائرة": 3702,
      "والمد": 3703,
      "##انع": 3704,
      "يرت": 3705,
      "وجد": 3706,
      "بعنوان": 3707,
      "سؤال": 3708,
      "##هضة": 3709,
      "قط": 3710,
      "الحج": 3711,
      "##فعيل": 3712,
      "##ئلة": 3713,
      "المكان": 3714,
      "تمر": 3715,
      "وإذا": 3716,
      "وصلت": 3717,
      "الور": 3718,
      "##يسى": 3719,
      "المستشفى": 3720,
      "افتتاح": 3721,
      "##خطيط": 3722,
      "جائزة": 3723,
      "سياسة": 3724,
      "حساب": 3725,
      "اكد": 3726,
      "كن": 3727,
      "حص": 3728,
      "المصدر": 3729,
      "الفائ": 3730,
      "قت": 3731,
      "المفاوضات": 3732,
      "الحملة": 3733,
      "##مبي": 3734,
      "الأق": 3735,
      "##اعي": 3736,
      "وبر": 3737,
      "##رسال": 3738,
      "والمس": 3739,
      "لات": 3740,
      "النصر": 3741,
      "##اخلي": 3742,
      "باريس": 3743,
      "الجلسة": 3744,
      "التواصل": 3745,
      "##قيب": 3746,
      "العهد": 3747,
      "##شاد": 3748,
      "تأثير": 3749,
      "##يسي": 3750,
      "بالط": 3751,
      "يبلغ": 3752,
      "##ؤكد": 3753,
      "الإنت": 3754,
      "الثقافية": 3755,
      "تعليم": 3756,
      "ممثل": 3757,
      "الأسد": 3758,
      "##فاج": 3759,
      "##وطن": 3760,
      "البنوك": 3761,
      "بنت": 3762,
      "معهم": 3763,
      "سيما": 3764,
      "الأل": 3765,
      "الحب": 3766,
      "##يمان": 3767,
      "##امه": 3768,
      "دورة": 3769,
      "##قليمية": 3770,
      "الرأي": 3771,
      "مطالب": 3772,
      "ويقول": 3773,
      "اهتمام": 3774,
      "اذ": 3775,
      "العين": 3776,
      "زمن": 3777,
      "وكيل": 3778,
      "##سه": 3779,
      "##ذية": 3780,
      "بسي": 3781,
      "وبح": 3782,
      "عربية": 3783,
      "حالات": 3784,
      "##بطة": 3785,
      "##ندق": 3786,
      "المتعلقة": 3787,
      "##انتخابات": 3788,
      "##ساعدة": 3789,
      "أحداث": 3790,
      "التمو": 3791,
      "مناق": 3792,
      "انتهاء": 3793,
      "البدا": 3794,
      "القت": 3795,
      "أسبوع": 3796,
      "النص": 3797,
      "القوة": 3798,
      "الالت": 3799,
      "جون": 3800,
      "##امى": 3801,
      "بمنطقة": 3802,
      "بسر": 3803,
      "الوطنى": 3804,
      "الإنتاج": 3805,
      "اللبنانيين": 3806,
      "المتوقع": 3807,
      "صفوف": 3808,
      "##كذا": 3809,
      "عالية": 3810,
      "الكهرباء": 3811,
      "ستة": 3812,
      "##تش": 3813,
      "##فو": 3814,
      "وطالب": 3815,
      "الغرب": 3816,
      "##عددة": 3817,
      "الأهلي": 3818,
      "##سحاب": 3819,
      "الأساسية": 3820,
      "الفع": 3821,
      "الحض": 3822,
      "طن": 3823,
      "ها": 3824,
      "العدل": 3825,
      "32": 3826,
      "واحت": 3827,
      "##هلك": 3828,
      "##ثيل": 3829,
      "القائمة": 3830,
      "نست": 3831,
      "##شى": 3832,
      "موسى": 3833,
      "##جازات": 3834,
      "ممن": 3835,
      "##طلقت": 3836,
      "يزيد": 3837,
      "بقيمة": 3838,
      "للعمل": 3839,
      "تشرين": 3840,
      "الشارع": 3841,
      "الرك": 3842,
      "##طاق": 3843,
      "##جمة": 3844,
      "الجوية": 3845,
      "مياه": 3846,
      "يزال": 3847,
      "##أى": 3848,
      "##اربة": 3849,
      "بأس": 3850,
      "##تهما": 3851,
      "ملك": 3852,
      "السياحة": 3853,
      "النز": 3854,
      "مجموع": 3855,
      "الدرا": 3856,
      "خمس": 3857,
      "اض": 3858,
      "يؤدي": 3859,
      "برو": 3860,
      "مراكز": 3861,
      "##لاحظ": 3862,
      "##زايد": 3863,
      "##ارف": 3864,
      "ماذا": 3865,
      "كام": 3866,
      "المغرب": 3867,
      "الحادث": 3868,
      "الثلاثة": 3869,
      "اضافة": 3870,
      "كا": 3871,
      "##ورها": 3872,
      "السودان": 3873,
      "الابت": 3874,
      "الروسية": 3875,
      "##غلال": 3876,
      "مطل": 3877,
      "وأع": 3878,
      "رابط": 3879,
      "##ناع": 3880,
      "الظروف": 3881,
      "الجمهور": 3882,
      "العرض": 3883,
      "يلت": 3884,
      "##بى": 3885,
      "##حاث": 3886,
      "راشد": 3887,
      "المدن": 3888,
      "##قيقي": 3889,
      "وأنه": 3890,
      "ترا": 3891,
      "الحقيقة": 3892,
      "لأنها": 3893,
      "كو": 3894,
      "بمدينة": 3895,
      "الفرق": 3896,
      "بحق": 3897,
      "تجربة": 3898,
      "تونس": 3899,
      "##ولية": 3900,
      "##كير": 3901,
      "##الا": 3902,
      "والاجتما": 3903,
      "ولاية": 3904,
      "بهم": 3905,
      "تضم": 3906,
      "45": 3907,
      "إقامة": 3908,
      "امير": 3909,
      "صندوق": 3910,
      "##شية": 3911,
      "الروسي": 3912,
      "لكنها": 3913,
      "وبلغ": 3914,
      "كلا": 3915,
      "##نتين": 3916,
      "لكي": 3917,
      "كبار": 3918,
      "وبعض": 3919,
      "توجه": 3920,
      "##ثمان": 3921,
      "##انيين": 3922,
      "مستقبل": 3923,
      "الشب": 3924,
      "البرامج": 3925,
      "الأوروبية": 3926,
      "يز": 3927,
      "الاسبوع": 3928,
      "الاهتمام": 3929,
      "##نيات": 3930,
      "وشدد": 3931,
      "للتن": 3932,
      "السيارة": 3933,
      "دقيقة": 3934,
      "عادل": 3935,
      "اث": 3936,
      "المكتب": 3937,
      "70": 3938,
      "الست": 3939,
      "تا": 3940,
      "##بعد": 3941,
      "##غوط": 3942,
      "##غاية": 3943,
      "أننا": 3944,
      "##قين": 3945,
      "ومنها": 3946,
      "وزراء": 3947,
      "مواطن": 3948,
      "البحرين": 3949,
      "##هران": 3950,
      "القديمة": 3951,
      "الساح": 3952,
      "عامة": 3953,
      "فرق": 3954,
      "##عيين": 3955,
      "التض": 3956,
      "ومس": 3957,
      "نظر": 3958,
      "التفا": 3959,
      "واكد": 3960,
      "المعنية": 3961,
      "مسرح": 3962,
      "مون": 3963,
      "##ناه": 3964,
      "شيئا": 3965,
      "أوباما": 3966,
      "بلدية": 3967,
      "##ويورك": 3968,
      "الخبر": 3969,
      "##تيال": 3970,
      "منصور": 3971,
      "صع": 3972,
      "مطار": 3973,
      "وفد": 3974,
      "صنع": 3975,
      "مالية": 3976,
      "##شفيات": 3977,
      "##سيم": 3978,
      "الاب": 3979,
      "العمليات": 3980,
      "ليبيا": 3981,
      "اللح": 3982,
      "والان": 3983,
      "غرفة": 3984,
      "##هوم": 3985,
      "##لل": 3986,
      "اليون": 3987,
      "مسل": 3988,
      "أهل": 3989,
      "ذاته": 3990,
      "التقدم": 3991,
      "الزمن": 3992,
      "ناحية": 3993,
      "##ونه": 3994,
      "صفر": 3995,
      "اليهود": 3996,
      "الإجراءات": 3997,
      "ته": 3998,
      "لديه": 3999,
      "تقريبا": 4000,
      "وذكرت": 4001,
      "التركي": 4002,
      "الأسواق": 4003,
      "##حف": 4004,
      "بمع": 4005,
      "لصالح": 4006,
      "دا": 4007,
      "وكيف": 4008,
      "موسم": 4009,
      "أولا": 4010,
      "سلسلة": 4011,
      "الرائ": 4012,
      "التركية": 4013,
      "صار": 4014,
      "تواجه": 4015,
      "قرارات": 4016,
      "بتن": 4017,
      "80": 4018,
      "القيام": 4019,
      "يرى": 4020,
      "##ونغ": 4021,
      "ممار": 4022,
      "المض": 4023,
      "##بقى": 4024,
      "الأستاذ": 4025,
      "الحفل": 4026,
      "والعد": 4027,
      "قلب": 4028,
      "##الفة": 4029,
      "وكأن": 4030,
      "تسجيل": 4031,
      "المركزي": 4032,
      "التعد": 4033,
      "##الث": 4034,
      "البشرية": 4035,
      "##يمة": 4036,
      "##اضر": 4037,
      "تزال": 4038,
      "الإنسانية": 4039,
      "بطريقة": 4040,
      "القمة": 4041,
      "##زيارة": 4042,
      "##اعية": 4043,
      "يحصل": 4044,
      "##سس": 4045,
      "لط": 4046,
      "وأضافت": 4047,
      "##er": 4048,
      "القن": 4049,
      "الأحداث": 4050,
      "فريقه": 4051,
      "##كاديم": 4052,
      "أساس": 4053,
      "##جري": 4054,
      "##ترا": 4055,
      "عسكرية": 4056,
      "##قطع": 4057,
      "الإرها": 4058,
      "حوار": 4059,
      "أفريقيا": 4060,
      "المدنية": 4061,
      "أسباب": 4062,
      "علاقات": 4063,
      "ايران": 4064,
      "القانونية": 4065,
      "واشار": 4066,
      "الثقافي": 4067,
      "##جهيز": 4068,
      "الثقة": 4069,
      "##فرد": 4070,
      "آسيا": 4071,
      "##عتها": 4072,
      "سبأ": 4073,
      "سهم": 4074,
      "##امر": 4075,
      "التقلي": 4076,
      "بعدم": 4077,
      "آخرين": 4078,
      "ولفت": 4079,
      "##غانستان": 4080,
      "وأم": 4081,
      "أجهزة": 4082,
      "الآخرين": 4083,
      "اليه": 4084,
      "المتظاهر": 4085,
      "##جئين": 4086,
      "بريطانيا": 4087,
      "منزل": 4088,
      "يجري": 4089,
      "##رابل": 4090,
      "الحديثة": 4091,
      "لبن": 4092,
      "عديدة": 4093,
      "مجرد": 4094,
      "الصغيرة": 4095,
      "مرشح": 4096,
      "بعيدا": 4097,
      "التغيير": 4098,
      "التدري": 4099,
      "طوال": 4100,
      "الصحف": 4101,
      "جيدة": 4102,
      "##واة": 4103,
      "يملك": 4104,
      "##ضمان": 4105,
      "بمحافظة": 4106,
      "خليفة": 4107,
      "البداية": 4108,
      "##بلا": 4109,
      "تعرف": 4110,
      "##لافات": 4111,
      "##ابيع": 4112,
      "التخ": 4113,
      "##ورت": 4114,
      "أصد": 4115,
      "ترت": 4116,
      "الملف": 4117,
      "##غلاق": 4118,
      "التعليمية": 4119,
      "صناعة": 4120,
      "سلم": 4121,
      "رئاسة": 4122,
      "بالخ": 4123,
      "##سطس": 4124,
      "تعود": 4125,
      "##فيه": 4126,
      "##سباني": 4127,
      "##جهود": 4128,
      "تلقى": 4129,
      "لقب": 4130,
      "واضحة": 4131,
      "التدريب": 4132,
      "نصر": 4133,
      "أكدت": 4134,
      "##شط": 4135,
      "الفكر": 4136,
      "نه": 4137,
      "الاسرائيلية": 4138,
      "##ملية": 4139,
      "الأراضي": 4140,
      "##راجعة": 4141,
      "##امات": 4142,
      "ودعا": 4143,
      "علما": 4144,
      "السكان": 4145,
      "##وائز": 4146,
      "مرسى": 4147,
      "المكر": 4148,
      "المجالات": 4149,
      "لدينا": 4150,
      "قوله": 4151,
      "الخامس": 4152,
      "##كلف": 4153,
      "مشاكل": 4154,
      "سلمان": 4155,
      "نور": 4156,
      "لفت": 4157,
      "##دخل": 4158,
      "بنفس": 4159,
      "##واف": 4160,
      "النهائية": 4161,
      "وتق": 4162,
      "##قالة": 4163,
      "اثر": 4164,
      "##يح": 4165,
      "##ريقي": 4166,
      "وإنما": 4167,
      "والمع": 4168,
      "رويت": 4169,
      "فمن": 4170,
      "##نيين": 4171,
      "أخذ": 4172,
      "##ويق": 4173,
      "وعندما": 4174,
      "ايج": 4175,
      "طائ": 4176,
      "الرسمي": 4177,
      "عا": 4178,
      "##وصول": 4179,
      "تأتي": 4180,
      "##تام": 4181,
      "الدينية": 4182,
      "##وامل": 4183,
      "##صري": 4184,
      "ذكرت": 4185,
      "##فسهم": 4186,
      "##واريخ": 4187,
      "جرى": 4188,
      "الثامنة": 4189,
      "بقيادة": 4190,
      "سياسي": 4191,
      "142": 4192,
      "خير": 4193,
      "##عودة": 4194,
      "الإعلان": 4195,
      "مسيرة": 4196,
      "##واجد": 4197,
      "محطة": 4198,
      "الانسان": 4199,
      "##روة": 4200,
      "##ساط": 4201,
      "النشاط": 4202,
      "مؤسسات": 4203,
      "##ولد": 4204,
      "الألمانية": 4205,
      "##نام": 4206,
      "الرحمن": 4207,
      "هجوم": 4208,
      "درا": 4209,
      "للك": 4210,
      "للمرة": 4211,
      "عما": 4212,
      "تجمع": 4213,
      "الأحمر": 4214,
      "ولل": 4215,
      "المهمة": 4216,
      "##لاج": 4217,
      "متم": 4218,
      "انع": 4219,
      "لوك": 4220,
      "##قاش": 4221,
      "لتح": 4222,
      "التوق": 4223,
      "الدراسات": 4224,
      "تأسيس": 4225,
      "الطائرة": 4226,
      "بمن": 4227,
      "ويد": 4228,
      "نيويورك": 4229,
      "حض": 4230,
      "الأمة": 4231,
      "##ودية": 4232,
      "##فريقية": 4233,
      "سيع": 4234,
      "سنويا": 4235,
      "بلدة": 4236,
      "الرئيسي": 4237,
      "الوك": 4238,
      "وفر": 4239,
      "تحقق": 4240,
      "منتصف": 4241,
      "الحقوق": 4242,
      "أمل": 4243,
      "أربع": 4244,
      "استقبل": 4245,
      "##ياز": 4246,
      "المباريات": 4247,
      "البحرية": 4248,
      "90": 4249,
      "الفساد": 4250,
      "السبب": 4251,
      "##ابين": 4252,
      "##صابات": 4253,
      "ولد": 4254,
      "تبلغ": 4255,
      "المشتركة": 4256,
      "بعدها": 4257,
      "##زمات": 4258,
      "كنا": 4259,
      "وأس": 4260,
      "القول": 4261,
      "قرية": 4262,
      "إع": 4263,
      "تبدأ": 4264,
      "جماعة": 4265,
      "زم": 4266,
      "##فسة": 4267,
      "العلمي": 4268,
      "##ادثات": 4269,
      "الفرصة": 4270,
      "ينب": 4271,
      "توجيه": 4272,
      "##نافس": 4273,
      "توجد": 4274,
      "وأنا": 4275,
      "الجماهير": 4276,
      "الحالة": 4277,
      "كانون": 4278,
      "##ماح": 4279,
      "الصيف": 4280,
      "إجراءات": 4281,
      "مأ": 4282,
      "##يزانية": 4283,
      "الصندوق": 4284,
      "للمشاركة": 4285,
      "المنافسة": 4286,
      "تحتاج": 4287,
      "##ولين": 4288,
      "الواقعة": 4289,
      "إعلام": 4290,
      "البرا": 4291,
      "##بطولة": 4292,
      "##تمال": 4293,
      "الكل": 4294,
      "ثورة": 4295,
      "الصورة": 4296,
      "الأسرة": 4297,
      "ورغم": 4298,
      "##ديق": 4299,
      "##وراق": 4300,
      "صعيد": 4301,
      "قاعدة": 4302,
      "مسألة": 4303,
      "الشاعر": 4304,
      "بقية": 4305,
      "ليت": 4306,
      "مكافحة": 4307,
      "وهى": 4308,
      "##طاليا": 4309,
      "اعمال": 4310,
      "شكر": 4311,
      "العقد": 4312,
      "والمح": 4313,
      "##صلت": 4314,
      "مرور": 4315,
      "الآسي": 4316,
      "باك": 4317,
      "##وسطة": 4318,
      "العالي": 4319,
      "2004": 4320,
      "العض": 4321,
      "الداخلي": 4322,
      "التجاري": 4323,
      "##ونها": 4324,
      "##طلبات": 4325,
      "##اضافة": 4326,
      "##ملكة": 4327,
      "الصباح": 4328,
      "##ارك": 4329,
      "تقل": 4330,
      "زايد": 4331,
      "الواحد": 4332,
      "##وفا": 4333,
      "خطوة": 4334,
      "طريقة": 4335,
      "لتس": 4336,
      "36": 4337,
      "##اره": 4338,
      "والمن": 4339,
      "مؤشر": 4340,
      "يحي": 4341,
      "الترب": 4342,
      "##زق": 4343,
      "أسهم": 4344,
      "ولكنه": 4345,
      "يمت": 4346,
      "الفض": 4347,
      "متابعة": 4348,
      "##ثرة": 4349,
      "##ائن": 4350,
      "وليد": 4351,
      "طر": 4352,
      "##اقات": 4353,
      "حاجة": 4354,
      "جام": 4355,
      "أشخاص": 4356,
      "الزراعة": 4357,
      "##غرب": 4358,
      "زين": 4359,
      "الأجهزة": 4360,
      "للموا": 4361,
      "سقوط": 4362,
      "إعداد": 4363,
      "##جارة": 4364,
      "النوع": 4365,
      "يقل": 4366,
      "الباحث": 4367,
      "194": 4368,
      "بوت": 4369,
      "##بادئ": 4370,
      "بالمنطقة": 4371,
      "سابقا": 4372,
      "##شهد": 4373,
      "السلم": 4374,
      "المقد": 4375,
      "الكاتب": 4376,
      "قطع": 4377,
      "تعيين": 4378,
      "##حوال": 4379,
      "بمناسبة": 4380,
      "33": 4381,
      "تضمن": 4382,
      "##شرطة": 4383,
      "يستخدم": 4384,
      "قمة": 4385,
      "الرجال": 4386,
      "المقابل": 4387,
      "رئيسا": 4388,
      "##فن": 4389,
      "##قائق": 4390,
      "ضرب": 4391,
      "الصحافة": 4392,
      "سيارات": 4393,
      "##لول": 4394,
      "نم": 4395,
      "لدعم": 4396,
      "السويس": 4397,
      "##قيات": 4398,
      "##ئون": 4399,
      "غر": 4400,
      "التحد": 4401,
      "اننا": 4402,
      "جراء": 4403,
      "الوث": 4404,
      "توقيع": 4405,
      "يجد": 4406,
      "انتشار": 4407,
      "طلاب": 4408,
      "##ربين": 4409,
      "استقبال": 4410,
      "##ظاهرات": 4411,
      "مرات": 4412,
      "تريد": 4413,
      "##بعاد": 4414,
      "وأف": 4415,
      "معدل": 4416,
      "##جاب": 4417,
      "##فاعل": 4418,
      "##خطاء": 4419,
      "مجتمع": 4420,
      "##ياط": 4421,
      "عبارة": 4422,
      "البار": 4423,
      "##عام": 4424,
      "##الفات": 4425,
      "القلب": 4426,
      "يشارك": 4427,
      "معالي": 4428,
      "رويترز": 4429,
      "##وضحت": 4430,
      "المطلوب": 4431,
      "للمست": 4432,
      "بمست": 4433,
      "ميد": 4434,
      "روح": 4435,
      "##شير": 4436,
      "جيدا": 4437,
      "أنت": 4438,
      "ووضع": 4439,
      "الحال": 4440,
      "ففي": 4441,
      "العاملة": 4442,
      "والذى": 4443,
      "وسم": 4444,
      "شراء": 4445,
      "الجامعات": 4446,
      "##كتر": 4447,
      "التزام": 4448,
      "المناسب": 4449,
      "تورس": 4450,
      "##افر": 4451,
      "فرع": 4452,
      "مزيد": 4453,
      "بحاجة": 4454,
      "##ضمام": 4455,
      "النووية": 4456,
      "الوظ": 4457,
      "عشرات": 4458,
      "تفاصيل": 4459,
      "##كرر": 4460,
      "الأشخاص": 4461,
      "للأس": 4462,
      "الديمقراطية": 4463,
      "قررت": 4464,
      "تعديل": 4465,
      "قوى": 4466,
      "قصر": 4467,
      "500": 4468,
      "الساحة": 4469,
      "##لتقى": 4470,
      "##بيت": 4471,
      "السفارة": 4472,
      "حصول": 4473,
      "عصر": 4474,
      "##آخر": 4475,
      "الشمال": 4476,
      "التشري": 4477,
      "وهل": 4478,
      "##يطالي": 4479,
      "الجماعة": 4480,
      "##ضيع": 4481,
      "##ناقش": 4482,
      "بواس": 4483,
      "وفاة": 4484,
      "ويمكن": 4485,
      "مبلغ": 4486,
      "##يطرة": 4487,
      "##ليه": 4488,
      "السم": 4489,
      "آذار": 4490,
      "##ائلات": 4491,
      "عسكري": 4492,
      "##فتاء": 4493,
      "لمواجهة": 4494,
      "المشاركين": 4495,
      "الرم": 4496,
      "تقع": 4497,
      "مسؤولية": 4498,
      "وأي": 4499,
      "الزيارة": 4500,
      "##رابلس": 4501,
      "المجا": 4502,
      "السيطرة": 4503,
      "بالاضافة": 4504,
      "##قيام": 4505,
      "##ناية": 4506,
      "ويل": 4507,
      "الدعوة": 4508,
      "##داخل": 4509,
      "وربما": 4510,
      "بالب": 4511,
      "##وارئ": 4512,
      "شم": 4513,
      "الملا": 4514,
      "الهد": 4515,
      "##شيح": 4516,
      "##ذن": 4517,
      "مصالح": 4518,
      "##رقام": 4519,
      "يعت": 4520,
      "ليرة": 4521,
      "سيف": 4522,
      "اللجان": 4523,
      "ديم": 4524,
      "ويعت": 4525,
      "هن": 4526,
      "لعدم": 4527,
      "تغير": 4528,
      "##دريب": 4529,
      "نعم": 4530,
      "تخص": 4531,
      "أنواع": 4532,
      "اكبر": 4533,
      "##فاف": 4534,
      "بالفعل": 4535,
      "الربع": 4536,
      "أنحاء": 4537,
      "الغذائية": 4538,
      "اليد": 4539,
      "صغيرة": 4540,
      "وقعت": 4541,
      "النووي": 4542,
      "##اهدة": 4543,
      "القرآن": 4544,
      "2014": 4545,
      "مليارات": 4546,
      "طل": 4547,
      "بطل": 4548,
      "نظم": 4549,
      "لذا": 4550,
      "بيد": 4551,
      "الأسهم": 4552,
      "فإنه": 4553,
      "##رويج": 4554,
      "العلوم": 4555,
      "النات": 4556,
      "أبريل": 4557,
      "اعتماد": 4558,
      "حقيقة": 4559,
      "##ضون": 4560,
      "وأخ": 4561,
      "تحويل": 4562,
      "وعم": 4563,
      "##راس": 4564,
      "الفصل": 4565,
      "##ذكرة": 4566,
      "##زالة": 4567,
      "أوضح": 4568,
      "##زت": 4569,
      "لمجلس": 4570,
      "الإنترنت": 4571,
      "عاش": 4572,
      "##كلات": 4573,
      "مدريد": 4574,
      "حدوث": 4575,
      "الدرجة": 4576,
      "شؤون": 4577,
      "وتج": 4578,
      "##سته": 4579,
      "صرف": 4580,
      "البح": 4581,
      "كوريا": 4582,
      "##يمين": 4583,
      "الرؤ": 4584,
      "آن": 4585,
      "الدخول": 4586,
      "وسجل": 4587,
      "واسعة": 4588,
      "يو": 4589,
      "وحول": 4590,
      "البتر": 4591,
      "المسئول": 4592,
      "التك": 4593,
      "إثر": 4594,
      "لابد": 4595,
      "##حرك": 4596,
      "صحة": 4597,
      "مدة": 4598,
      "بينهما": 4599,
      "الجنسية": 4600,
      "بتس": 4601,
      "الأسر": 4602,
      "المكت": 4603,
      "وتطوير": 4604,
      "وقدم": 4605,
      "العدد": 4606,
      "الصراع": 4607,
      "تشمل": 4608,
      "النهاية": 4609,
      "##وقوف": 4610,
      "الاتصال": 4611,
      "مثلا": 4612,
      "رسميا": 4613,
      "ميش": 4614,
      "##ويس": 4615,
      "اطار": 4616,
      "##ادا": 4617,
      "القطاعات": 4618,
      "استطاع": 4619,
      "وأشارت": 4620,
      "##سبانيا": 4621,
      "##يناء": 4622,
      "يحاول": 4623,
      "السفر": 4624,
      "##بيين": 4625,
      "الاربع": 4626,
      "دعوة": 4627,
      "الاستقرار": 4628,
      "مسلسل": 4629,
      "أمريكا": 4630,
      "فئة": 4631,
      "الامري": 4632,
      "مكة": 4633,
      "195": 4634,
      "##زيلي": 4635,
      "##حته": 4636,
      "النجاح": 4637,
      "مساحة": 4638,
      "##لمانية": 4639,
      "التصويت": 4640,
      "الند": 4641,
      "معينة": 4642,
      "##ئناف": 4643,
      "بقوة": 4644,
      "السلاح": 4645,
      "##كنولوجيا": 4646,
      "##نائي": 4647,
      "مرو": 4648,
      "##وائل": 4649,
      "ضم": 4650,
      "جهته": 4651,
      "##باه": 4652,
      "الشرعية": 4653,
      "##جمعية": 4654,
      "##كلي": 4655,
      "المتط": 4656,
      "##مالك": 4657,
      "الرياضة": 4658,
      "##هلي": 4659,
      "##انات": 4660,
      "يبدأ": 4661,
      "الحديد": 4662,
      "فار": 4663,
      "##عدام": 4664,
      "شعار": 4665,
      "يورو": 4666,
      "عمان": 4667,
      "نجد": 4668,
      "##ضاة": 4669,
      "##ثبت": 4670,
      "الحالات": 4671,
      "قريبا": 4672,
      "نجم": 4673,
      "##هلة": 4674,
      "القرارات": 4675,
      "الأسعار": 4676,
      "بض": 4677,
      "تؤكد": 4678,
      "##كوين": 4679,
      "الملعب": 4680,
      "##طبيق": 4681,
      "حاول": 4682,
      "للي": 4683,
      "مواقف": 4684,
      "ناج": 4685,
      "المرة": 4686,
      "يضم": 4687,
      "##بو": 4688,
      "الفرد": 4689,
      "الدولى": 4690,
      "شبه": 4691,
      "جب": 4692,
      "##يير": 4693,
      "##حام": 4694,
      "وسلم": 4695,
      "الزراعية": 4696,
      "تحول": 4697,
      "الأبيض": 4698,
      "##فيض": 4699,
      "مشد": 4700,
      "##ياد": 4701,
      "الكلام": 4702,
      "يط": 4703,
      "البريطاني": 4704,
      "الأعضاء": 4705,
      "اعلن": 4706,
      "مسب": 4707,
      "##جية": 4708,
      "##واه": 4709,
      "العدالة": 4710,
      "ترب": 4711,
      "غد": 4712,
      "الخير": 4713,
      "رؤية": 4714,
      "##ولاية": 4715,
      "##أكيد": 4716,
      "34": 4717,
      "##زيمة": 4718,
      "##عمل": 4719,
      "##حلة": 4720,
      "##بلوماسية": 4721,
      "تدريب": 4722,
      "حوالى": 4723,
      "##كمل": 4724,
      "تسعى": 4725,
      "الحص": 4726,
      "السادس": 4727,
      "رعاية": 4728,
      "واقع": 4729,
      "شعر": 4730,
      "محل": 4731,
      "##الج": 4732,
      "التأمين": 4733,
      "مبنى": 4734,
      "شاهد": 4735,
      "يواجه": 4736,
      "الزمالك": 4737,
      "أصل": 4738,
      "وله": 4739,
      "البرت": 4740,
      "42": 4741,
      "##تيش": 4742,
      "المركزية": 4743,
      "##سيما": 4744,
      "داعش": 4745,
      "300": 4746,
      "يعتقد": 4747,
      "لغ": 4748,
      "لديهم": 4749,
      "المهم": 4750,
      "##لاع": 4751,
      "الحضور": 4752,
      "رسمية": 4753,
      "المسؤولية": 4754,
      "مجددا": 4755,
      "##روفة": 4756,
      "الموسي": 4757,
      "الشاب": 4758,
      "##راكة": 4759,
      "العقارية": 4760,
      "بشار": 4761,
      "الجب": 4762,
      "طهران": 4763,
      "##ىء": 4764,
      "تهدف": 4765,
      "عادة": 4766,
      "##سع": 4767,
      "أمنية": 4768,
      "##جتمعات": 4769,
      "##اول": 4770,
      "إسلام": 4771,
      "أصدر": 4772,
      "السياحية": 4773,
      "الفنى": 4774,
      "ممكن": 4775,
      "شرف": 4776,
      "لمس": 4777,
      "##ونات": 4778,
      "بالغ": 4779,
      "لين": 4780,
      "تبقى": 4781,
      "الكن": 4782,
      "##كاب": 4783,
      "75": 4784,
      "##قافية": 4785,
      "##وليد": 4786,
      "##ماس": 4787,
      "الخطة": 4788,
      "يحقق": 4789,
      "##صرية": 4790,
      "ظروف": 4791,
      "ساهم": 4792,
      "أضاف": 4793,
      "الدستورية": 4794,
      "عمرو": 4795,
      "المرشحين": 4796,
      "##ثي": 4797,
      "اعضاء": 4798,
      "أين": 4799,
      "التيار": 4800,
      "ويتم": 4801,
      "اق": 4802,
      "حاج": 4803,
      "##بيعات": 4804,
      "مجالات": 4805,
      "كأ": 4806,
      "مطلع": 4807,
      "##اريا": 4808,
      "المقر": 4809,
      "##بلد": 4810,
      "الطيران": 4811,
      "اتخذ": 4812,
      "البا": 4813,
      "المواقع": 4814,
      "بسرعة": 4815,
      "الأندية": 4816,
      "##نون": 4817,
      "عقود": 4818,
      "مادة": 4819,
      "الاخرى": 4820,
      "المبادرة": 4821,
      "##الحة": 4822,
      "المذك": 4823,
      "رأي": 4824,
      "كاملة": 4825,
      "الأموال": 4826,
      "48": 4827,
      "كيفية": 4828,
      "ووف": 4829,
      "##حط": 4830,
      "##ندات": 4831,
      "##قرة": 4832,
      "المشاكل": 4833,
      "المستثمرين": 4834,
      "أطفال": 4835,
      "عرب": 4836,
      "##اليب": 4837,
      "للرئيس": 4838,
      "الإف": 4839,
      "##يلى": 4840,
      "تعاون": 4841,
      "والز": 4842,
      "##خير": 4843,
      "##قاطعة": 4844,
      "القوانين": 4845,
      "الجمع": 4846,
      "المتهمين": 4847,
      "جيد": 4848,
      "أعد": 4849,
      "الإدارية": 4850,
      "الإيراني": 4851,
      "راب": 4852,
      "للفريق": 4853,
      "##on": 4854,
      "الذه": 4855,
      "خلاله": 4856,
      "البع": 4857,
      "المتن": 4858,
      "جزءا": 4859,
      "الأكبر": 4860,
      "طرابلس": 4861,
      "ثقافة": 4862,
      "نن": 4863,
      "دولية": 4864,
      "بواسطة": 4865,
      "النظ": 4866,
      "شن": 4867,
      "سمير": 4868,
      "يتحدث": 4869,
      "لتش": 4870,
      "##صم": 4871,
      "عش": 4872,
      "الثانوية": 4873,
      "الموجودة": 4874,
      "الهي": 4875,
      "التنفيذية": 4876,
      "##ودي": 4877,
      "ممث": 4878,
      "مقد": 4879,
      "متأ": 4880,
      "العمومية": 4881,
      "أطلق": 4882,
      "##فاءة": 4883,
      "المنزل": 4884,
      "وتست": 4885,
      "حادث": 4886,
      "اته": 4887,
      "تظهر": 4888,
      "دست": 4889,
      "##قاومة": 4890,
      "الانتق": 4891,
      "##خال": 4892,
      "##هة": 4893,
      "##هداء": 4894,
      "2003": 4895,
      "لأول": 4896,
      "عمله": 4897,
      "بالص": 4898,
      "لجميع": 4899,
      "واب": 4900,
      "حرية": 4901,
      "الشأن": 4902,
      "الخليجية": 4903,
      "يلعب": 4904,
      "##أمين": 4905,
      "اتفاقية": 4906,
      "ودعم": 4907,
      "جديدا": 4908,
      "الوكالة": 4909,
      "راف": 4910,
      "أرد": 4911,
      "متوسط": 4912,
      "توقف": 4913,
      "أغسطس": 4914,
      "الجو": 4915,
      "القائم": 4916,
      "واضح": 4917,
      "##ؤاد": 4918,
      "الشهيد": 4919,
      "مسابقة": 4920,
      "##تيح": 4921,
      "خليل": 4922,
      "للاتحاد": 4923,
      "##وانب": 4924,
      "المتوسط": 4925,
      "##قلين": 4926,
      "المعارض": 4927,
      "وقام": 4928,
      "والاقتصاد": 4929,
      "الدع": 4930,
      "فإ": 4931,
      "قض": 4932,
      "##خيل": 4933,
      "التحقيقات": 4934,
      "لتقديم": 4935,
      "نهائ": 4936,
      "كلها": 4937,
      "يسمح": 4938,
      "تتعلق": 4939,
      "##زز": 4940,
      "قدمت": 4941,
      "الاعمال": 4942,
      "واخت": 4943,
      "37": 4944,
      "العتي": 4945,
      "برس": 4946,
      "##درس": 4947,
      "الموت": 4948,
      "شارع": 4949,
      "طائرة": 4950,
      "##ائحة": 4951,
      "##تان": 4952,
      "##وائية": 4953,
      "التمويل": 4954,
      "تعليق": 4955,
      "##روي": 4956,
      "سلامة": 4957,
      "الدكت": 4958,
      "رصيد": 4959,
      "##كافحة": 4960,
      "##لاقات": 4961,
      "الطبيعي": 4962,
      "##صيب": 4963,
      "##راعة": 4964,
      "##ساني": 4965,
      "المقدمة": 4966,
      "لعام": 4967,
      "##ائري": 4968,
      "لشركة": 4969,
      "وترك": 4970,
      "يفت": 4971,
      "بانت": 4972,
      "##قصى": 4973,
      "الأوضاع": 4974,
      "تي": 4975,
      "##امب": 4976,
      "##ظى": 4977,
      "##كاني": 4978,
      "الزواج": 4979,
      "##وائر": 4980,
      "اضاف": 4981,
      "الدائرة": 4982,
      "38": 4983,
      "ونقلت": 4984,
      "هول": 4985,
      "طف": 4986,
      "تأمين": 4987,
      "السؤال": 4988,
      "ترى": 4989,
      "الألماني": 4990,
      "ظهور": 4991,
      "تسبب": 4992,
      "بضرورة": 4993,
      "الأطراف": 4994,
      "التوالي": 4995,
      "يظهر": 4996,
      "لرئيس": 4997,
      "الممكن": 4998,
      "مسئول": 4999,
      "البلدان": 5000,
      "##عدة": 5001,
      "تشير": 5002,
      "ستت": 5003,
      "##وفي": 5004,
      "##باكات": 5005,
      "النفس": 5006,
      "##لقى": 5007,
      "التوصل": 5008,
      "ذه": 5009,
      "خطر": 5010,
      "بمشاركة": 5011,
      "جر": 5012,
      "##رجات": 5013,
      "انهم": 5014,
      "فشل": 5015,
      "أقيم": 5016,
      "سان": 5017,
      "المكرمة": 5018,
      "الرئاسية": 5019,
      "الموظفين": 5020,
      "مقدم": 5021,
      "التدخل": 5022,
      "##خراج": 5023,
      "ويأ": 5024,
      "تعيش": 5025,
      "اللقب": 5026,
      "##فات": 5027,
      "مير": 5028,
      "التحالف": 5029,
      "منس": 5030,
      "الناخب": 5031,
      "##شلونة": 5032,
      "واوضح": 5033,
      "للث": 5034,
      "وتر": 5035,
      "منز": 5036,
      "##in": 5037,
      "##ورين": 5038,
      "بشر": 5039,
      "وطنية": 5040,
      "##نادي": 5041,
      "لأي": 5042,
      "##ناس": 5043,
      "##وائد": 5044,
      "يسعى": 5045,
      "الحاجة": 5046,
      "موظف": 5047,
      "الاوروبي": 5048,
      "##هات": 5049,
      "ظاهرة": 5050,
      "##علوم": 5051,
      "##رال": 5052,
      "وبن": 5053,
      "التراث": 5054,
      "الأر": 5055,
      "##نازل": 5056,
      "الكر": 5057,
      "حصلت": 5058,
      "عيسى": 5059,
      "وخصوص": 5060,
      "ورفع": 5061,
      "رفيق": 5062,
      "الاعتداء": 5063,
      "مدار": 5064,
      "الحفاظ": 5065,
      "يبقى": 5066,
      "القاضي": 5067,
      "##ومي": 5068,
      "الخض": 5069,
      "للغاية": 5070,
      "الشعبي": 5071,
      "بعضهم": 5072,
      "مواد": 5073,
      "تنمية": 5074,
      "الخيرية": 5075,
      "التاريخية": 5076,
      "##ذاعة": 5077,
      "إش": 5078,
      "اسمه": 5079,
      "السجن": 5080,
      "يطالب": 5081,
      "##ينات": 5082,
      "وبم": 5083,
      "ولذلك": 5084,
      "وأكدت": 5085,
      "النتيجة": 5086,
      "##اريو": 5087,
      "الممت": 5088,
      "الإنجلي": 5089,
      "##ناقشة": 5090,
      "قن": 5091,
      "صحيح": 5092,
      "##ظهرت": 5093,
      "سلاح": 5094,
      "##ثال": 5095,
      "##راوح": 5096,
      "المسل": 5097,
      "عامل": 5098,
      "الصعيد": 5099,
      "طرف": 5100,
      "باستخدام": 5101,
      "##صات": 5102,
      "##صرة": 5103,
      "انتهت": 5104,
      "العسكر": 5105,
      "##بداع": 5106,
      "##قدير": 5107,
      "وقر": 5108,
      "مشار": 5109,
      "اتجاه": 5110,
      "السادسة": 5111,
      "المراكز": 5112,
      "اتصال": 5113,
      "بفضل": 5114,
      "معهد": 5115,
      "ينتظر": 5116,
      "##صفات": 5117,
      "افضل": 5118,
      "والاجتماعية": 5119,
      "مقب": 5120,
      "دفاع": 5121,
      "##طح": 5122,
      "##دين": 5123,
      "##طبق": 5124,
      "انخفاض": 5125,
      "فرانس": 5126,
      "القذ": 5127,
      "شديد": 5128,
      "تواصل": 5129,
      "تعت": 5130,
      "##رافي": 5131,
      "الرد": 5132,
      "للمر": 5133,
      "الخس": 5134,
      "للبن": 5135,
      "##ذات": 5136,
      "يخت": 5137,
      "##ويه": 5138,
      "حظ": 5139,
      "الشورى": 5140,
      "اليابان": 5141,
      "الرش": 5142,
      "قدرة": 5143,
      "الطلبة": 5144,
      "واحدا": 5145,
      "وتقديم": 5146,
      "ينبغي": 5147,
      "جاه": 5148,
      "إب": 5149,
      "تجد": 5150,
      "الطبيعية": 5151,
      "عس": 5152,
      "الوج": 5153,
      "شري": 5154,
      "##يدر": 5155,
      "الأحزاب": 5156,
      "المسلسل": 5157,
      "تسليم": 5158,
      "يقت": 5159,
      "صبا": 5160,
      "وقوع": 5161,
      "المبارك": 5162,
      "إصابة": 5163,
      "فهل": 5164,
      "نريد": 5165,
      "تصوير": 5166,
      "ومؤ": 5167,
      "##هلاك": 5168,
      "المتظاهرين": 5169,
      "الزوج": 5170,
      "أسماء": 5171,
      "حياته": 5172,
      "##حديث": 5173,
      "المسجد": 5174,
      "للحصول": 5175,
      "العربى": 5176,
      "##ضرار": 5177,
      "للان": 5178,
      "أسرة": 5179,
      "##ناسب": 5180,
      "##طنة": 5181,
      "خطط": 5182,
      "مجلة": 5183,
      "الثانى": 5184,
      "##ناديق": 5185,
      "##ظاهرة": 5186,
      "اليس": 5187,
      "مستويات": 5188,
      "الإصلاح": 5189,
      "الجهة": 5190,
      "الاستثمارات": 5191,
      "##رجع": 5192,
      "##حدات": 5193,
      "نفذ": 5194,
      "علام": 5195,
      "الكشف": 5196,
      "التقنية": 5197,
      "الضفة": 5198,
      "##ارين": 5199,
      "نجح": 5200,
      "##ددت": 5201,
      "وأح": 5202,
      "##ذين": 5203,
      "أموال": 5204,
      "سيل": 5205,
      "الخليجي": 5206,
      "اللاجئين": 5207,
      "##غت": 5208,
      "بمد": 5209,
      "يعاني": 5210,
      "القومي": 5211,
      "كري": 5212,
      "العلماء": 5213,
      "##سف": 5214,
      "كله": 5215,
      "##زنة": 5216,
      "##وعي": 5217,
      "المسابقة": 5218,
      "الالكتر": 5219,
      "الوس": 5220,
      "الشوارع": 5221,
      "صحفي": 5222,
      "عائلة": 5223,
      "طارق": 5224,
      "خطاب": 5225,
      "سيناء": 5226,
      "##دمير": 5227,
      "بجامعة": 5228,
      "تطور": 5229,
      "ري": 5230,
      "فقال": 5231,
      "زال": 5232,
      "##صدق": 5233,
      "الأهلى": 5234,
      "العنزي": 5235,
      "##هولة": 5236,
      "صدور": 5237,
      "فح": 5238,
      "للصح": 5239,
      "لبعض": 5240,
      "احدى": 5241,
      "قادة": 5242,
      "وقبل": 5243,
      "##ركان": 5244,
      "الكلية": 5245,
      "ضمان": 5246,
      "##ذيب": 5247,
      "مات": 5248,
      "نطاق": 5249,
      "تستخدم": 5250,
      "##ياته": 5251,
      "استثم": 5252,
      "##حتها": 5253,
      "##حلات": 5254,
      "##يرو": 5255,
      "الضغط": 5256,
      "الماء": 5257,
      "باراك": 5258,
      "جماهير": 5259,
      "##شين": 5260,
      "وتف": 5261,
      "السياق": 5262,
      "65": 5263,
      "برا": 5264,
      "العدو": 5265,
      "الحاكم": 5266,
      "##ناطق": 5267,
      "الأسلحة": 5268,
      "اعادة": 5269,
      "إمكانية": 5270,
      "خبر": 5271,
      "ضوء": 5272,
      "ثالث": 5273,
      "مناسبة": 5274,
      "الخروج": 5275,
      "ممارسة": 5276,
      "##هدي": 5277,
      "كشفت": 5278,
      "السكنية": 5279,
      "امرأة": 5280,
      "الدمام": 5281,
      "فؤاد": 5282,
      "فرد": 5283,
      "ضيف": 5284,
      "##بلوماسي": 5285,
      "العميد": 5286,
      "##اناة": 5287,
      "بأي": 5288,
      "يدفع": 5289,
      "القسم": 5290,
      "الانترنت": 5291,
      "والعشرين": 5292,
      "موظ": 5293,
      "رحلة": 5294,
      "إصدار": 5295,
      "دورا": 5296,
      "قصة": 5297,
      "خلق": 5298,
      "الموارد": 5299,
      "طول": 5300,
      "تبين": 5301,
      "##لاقة": 5302,
      "علاج": 5303,
      "رق": 5304,
      "المرور": 5305,
      "والمش": 5306,
      "الامارات": 5307,
      "ذوي": 5308,
      "عود": 5309,
      "متعددة": 5310,
      "استن": 5311,
      "##an": 5312,
      "النهضة": 5313,
      "تكر": 5314,
      "الجسم": 5315,
      "قول": 5316,
      "القدرة": 5317,
      "##ديقة": 5318,
      "يدخل": 5319,
      "مناقشة": 5320,
      "الصادر": 5321,
      "##ضرب": 5322,
      "##وحيد": 5323,
      "تقارير": 5324,
      "التونسي": 5325,
      "##دون": 5326,
      "##رجمة": 5327,
      "العقاري": 5328,
      "الامم": 5329,
      "امن": 5330,
      "تمويل": 5331,
      "سقط": 5332,
      "مئات": 5333,
      "باتجاه": 5334,
      "وخصوصا": 5335,
      "##زو": 5336,
      "الطرفين": 5337,
      "موسكو": 5338,
      "الانف": 5339,
      "الرقابة": 5340,
      "أسر": 5341,
      "الأردن": 5342,
      "تواجد": 5343,
      "الإسكندرية": 5344,
      "المخدرات": 5345,
      "جي": 5346,
      "##خمة": 5347,
      "##ليون": 5348,
      "الالم": 5349,
      "التابع": 5350,
      "##حوث": 5351,
      "مقت": 5352,
      "تصدر": 5353,
      "العشرين": 5354,
      "44": 5355,
      "العا": 5356,
      "أثر": 5357,
      "وبا": 5358,
      "تحسين": 5359,
      "الباب": 5360,
      "الغرفة": 5361,
      "اليها": 5362,
      "شروط": 5363,
      "التجربة": 5364,
      "ايام": 5365,
      "فاع": 5366,
      "مدارس": 5367,
      "##اضرة": 5368,
      "الاربعاء": 5369,
      "يقع": 5370,
      "##نائب": 5371,
      "##اشة": 5372,
      "الارد": 5373,
      "الاص": 5374,
      "شهادة": 5375,
      "الصناعة": 5376,
      "يبحث": 5377,
      "العيد": 5378,
      "الاج": 5379,
      "مشيرة": 5380,
      "الضوء": 5381,
      "خارجية": 5382,
      "##حويل": 5383,
      "العقل": 5384,
      "سفير": 5385,
      "##لمات": 5386,
      "ولكنها": 5387,
      "بتاريخ": 5388,
      "اغتيال": 5389,
      "منش": 5390,
      "##درجة": 5391,
      "الكوم": 5392,
      "##هرباء": 5393,
      "الطالب": 5394,
      "والموا": 5395,
      "بالاست": 5396,
      "تنظم": 5397,
      "ونقل": 5398,
      "##ليس": 5399,
      "##حى": 5400,
      "لحقوق": 5401,
      "رج": 5402,
      "يضع": 5403,
      "الاحد": 5404,
      "##حاق": 5405,
      "فري": 5406,
      "فصل": 5407,
      "ونت": 5408,
      "##خبة": 5409,
      "آثار": 5410,
      "فج": 5411,
      "دولارا": 5412,
      "##وزع": 5413,
      "لتطوير": 5414,
      "المساعدات": 5415,
      "الحسين": 5416,
      "##رياضة": 5417,
      "##وضى": 5418,
      "توفر": 5419,
      "ومر": 5420,
      "##باع": 5421,
      "##خبات": 5422,
      "##وانات": 5423,
      "##سرائيلى": 5424,
      "##ارها": 5425,
      "يقود": 5426,
      "البرازيلي": 5427,
      "هات": 5428,
      "سأ": 5429,
      "##زاء": 5430,
      "الضر": 5431,
      "مدن": 5432,
      "ومش": 5433,
      "نايف": 5434,
      "ماي": 5435,
      "##صى": 5436,
      "الرعاية": 5437,
      "الاتجاه": 5438,
      "البور": 5439,
      "ورفض": 5440,
      "##عرف": 5441,
      "##قاهرة": 5442,
      "حقيقية": 5443,
      "ارض": 5444,
      "توص": 5445,
      "الاتهام": 5446,
      "##برنامج": 5447,
      "##يلول": 5448,
      "##ديال": 5449,
      "الاستفادة": 5450,
      "نائ": 5451,
      "##قرأ": 5452,
      "الجائزة": 5453,
      "النقابة": 5454,
      "بعضها": 5455,
      "كيلوم": 5456,
      "وآخر": 5457,
      "الجريمة": 5458,
      "جابر": 5459,
      "البيانات": 5460,
      "فكر": 5461,
      "ليف": 5462,
      "##اوف": 5463,
      "للمس": 5464,
      "##طيف": 5465,
      "نهائي": 5466,
      "##صدير": 5467,
      "مراحل": 5468,
      "معالجة": 5469,
      "وجهة": 5470,
      "المستهلك": 5471,
      "والات": 5472,
      "قليلة": 5473,
      "الذات": 5474,
      "مشترك": 5475,
      "السويد": 5476,
      "##خصة": 5477,
      "السيدة": 5478,
      "الشارقة": 5479,
      "برشلونة": 5480,
      "إر": 5481,
      "##تابعة": 5482,
      "الحكومي": 5483,
      "المحد": 5484,
      "الطريقة": 5485,
      "صرح": 5486,
      "الحقيقية": 5487,
      "الأهداف": 5488,
      "خلا": 5489,
      "مجه": 5490,
      "تستطيع": 5491,
      "أط": 5492,
      "الحقيقي": 5493,
      "الميد": 5494,
      "التلفزيون": 5495,
      "المعهد": 5496,
      "##ؤل": 5497,
      "##شرق": 5498,
      "للمنت": 5499,
      "المثال": 5500,
      "حام": 5501,
      "وارت": 5502,
      "##غو": 5503,
      "أية": 5504,
      "والتق": 5505,
      "جمهورية": 5506,
      "مالي": 5507,
      "##كتاب": 5508,
      "منظ": 5509,
      "##عه": 5510,
      "الاستراتيجية": 5511,
      "الحدث": 5512,
      "##هوري": 5513,
      "شا": 5514,
      "##مائ": 5515,
      "الامت": 5516,
      "ضعف": 5517,
      "لاعبي": 5518,
      "تتضمن": 5519,
      "يصبح": 5520,
      "##عن": 5521,
      "مشارك": 5522,
      "المأ": 5523,
      "##شام": 5524,
      "موق": 5525,
      "آلية": 5526,
      "تعامل": 5527,
      "الرقم": 5528,
      "نجوم": 5529,
      "مال": 5530,
      "نيس": 5531,
      "الاسلامي": 5532,
      "مسلم": 5533,
      "فور": 5534,
      "النيل": 5535,
      "يشعر": 5536,
      "بمر": 5537,
      "الطرف": 5538,
      "نواب": 5539,
      "##يمي": 5540,
      "اللعب": 5541,
      "##اجر": 5542,
      "الحس": 5543,
      "والتح": 5544,
      "الانتهاء": 5545,
      "تملك": 5546,
      "الإصابة": 5547,
      "##خبارات": 5548,
      "استراتيجية": 5549,
      "الارت": 5550,
      "تأكيد": 5551,
      "مساعدة": 5552,
      "بيانات": 5553,
      "يتوقع": 5554,
      "معتبرا": 5555,
      "الأداء": 5556,
      "الشديد": 5557,
      "الفرص": 5558,
      "بدور": 5559,
      "صلى": 5560,
      "والتنمية": 5561,
      "الالتزام": 5562,
      "150": 5563,
      "##ساطة": 5564,
      "الكتب": 5565,
      "جهد": 5566,
      "اليومية": 5567,
      "ليل": 5568,
      "معرفة": 5569,
      "##هادات": 5570,
      "##حطاني": 5571,
      "##عان": 5572,
      "يعلم": 5573,
      "الايراني": 5574,
      "مستشار": 5575,
      "القضائية": 5576,
      "طرق": 5577,
      "البالغ": 5578,
      "استمر": 5579,
      "##رائب": 5580,
      "المرضى": 5581,
      "سبعة": 5582,
      "##ئتلاف": 5583,
      "##غار": 5584,
      "##تيات": 5585,
      "كف": 5586,
      "بتقديم": 5587,
      "##حسن": 5588,
      "الطائف": 5589,
      "##دائية": 5590,
      "##ليلا": 5591,
      "##خرة": 5592,
      "الجزء": 5593,
      "##صي": 5594,
      "##طلاب": 5595,
      "نقابة": 5596,
      "السابعة": 5597,
      "##حتاج": 5598,
      "أولى": 5599,
      "إضاف": 5600,
      "##تمام": 5601,
      "المنورة": 5602,
      "التالي": 5603,
      "موجود": 5604,
      "جرت": 5605,
      "55": 5606,
      "استخدم": 5607,
      "الحاج": 5608,
      "وعرض": 5609,
      "##وكي": 5610,
      "وأوضحت": 5611,
      "التحت": 5612,
      "يشهد": 5613,
      "نقص": 5614,
      "كول": 5615,
      "كلام": 5616,
      "العقوبات": 5617,
      "الراحل": 5618,
      "المطلوبة": 5619,
      "احتجا": 5620,
      "اقتصادية": 5621,
      "2002": 5622,
      "قادر": 5623,
      "##ودا": 5624,
      "مباحث": 5625,
      "خرج": 5626,
      "بوجود": 5627,
      "##لس": 5628,
      "##ستاني": 5629,
      "كبرى": 5630,
      "القحطاني": 5631,
      "تفعيل": 5632,
      "رغبة": 5633,
      "##بوط": 5634,
      "##سوم": 5635,
      "تزيد": 5636,
      "سابقة": 5637,
      "##لون": 5638,
      "##وذ": 5639,
      "لحل": 5640,
      "احترام": 5641,
      "التغ": 5642,
      "إجمالي": 5643,
      "مهاجم": 5644,
      "سوء": 5645,
      "انطلا": 5646,
      "##هلا": 5647,
      "الحربي": 5648,
      "لافت": 5649,
      "##وته": 5650,
      "الديموقراطية": 5651,
      "فس": 5652,
      "القناة": 5653,
      "الطوارئ": 5654,
      "المحتلة": 5655,
      "وسوف": 5656,
      "لحظة": 5657,
      "ثاني": 5658,
      "##قلاب": 5659,
      "أعرب": 5660,
      "الشمري": 5661,
      "يتعرض": 5662,
      "##20": 5663,
      "لتم": 5664,
      "والمؤسسات": 5665,
      "##مكان": 5666,
      "الاخير": 5667,
      "عالمية": 5668,
      "الغربي": 5669,
      "منافسات": 5670,
      "ميدان": 5671,
      "رؤساء": 5672,
      "##ويلا": 5673,
      "تبادل": 5674,
      "تسلم": 5675,
      "##وبا": 5676,
      "مبادرة": 5677,
      "##برت": 5678,
      "موافقة": 5679,
      "٢٠": 5680,
      "سيس": 5681,
      "تأجيل": 5682,
      "اثنين": 5683,
      "لقي": 5684,
      "##ضراب": 5685,
      "إلغاء": 5686,
      "المعروف": 5687,
      "وأيضا": 5688,
      "##حظ": 5689,
      "##عدل": 5690,
      "القيمة": 5691,
      "العتيبي": 5692,
      "حلول": 5693,
      "وموا": 5694,
      "##ده": 5695,
      "وإلى": 5696,
      "جنا": 5697,
      "تعالى": 5698,
      "تعلم": 5699,
      "والسل": 5700,
      "46": 5701,
      "41": 5702,
      "##قسام": 5703,
      "والمر": 5704,
      "للشباب": 5705,
      "##بلاد": 5706,
      "ثمة": 5707,
      "##واح": 5708,
      "ضغط": 5709,
      "##رابة": 5710,
      "بالقرب": 5711,
      "ربع": 5712,
      "التحتية": 5713,
      "فالم": 5714,
      "ساحة": 5715,
      "مشتركة": 5716,
      "##ائعة": 5717,
      "أغلب": 5718,
      "ذا": 5719,
      "##جرين": 5720,
      "بموجب": 5721,
      "43": 5722,
      "التنسيق": 5723,
      "الدي": 5724,
      "الخطوة": 5725,
      "##شري": 5726,
      "##ييد": 5727,
      "انطلاق": 5728,
      "مناز": 5729,
      "التعبير": 5730,
      "عمال": 5731,
      "##or": 5732,
      "الندوة": 5733,
      "البرلمانية": 5734,
      "جبل": 5735,
      "لسنة": 5736,
      "دليل": 5737,
      "الفعل": 5738,
      "##داب": 5739,
      "استد": 5740,
      "جيش": 5741,
      "والعالم": 5742,
      "ميشال": 5743,
      "العصر": 5744,
      "##ثابة": 5745,
      "##وند": 5746,
      "تموز": 5747,
      "وأحمد": 5748,
      "تقلي": 5749,
      "التركيز": 5750,
      "##شات": 5751,
      "بإن": 5752,
      "39": 5753,
      "الشخصيات": 5754,
      "الأطباء": 5755,
      "التأسيس": 5756,
      "للاستثمار": 5757,
      "##ذاك": 5758,
      "مرك": 5759,
      "ونصف": 5760,
      "النور": 5761,
      "محاولات": 5762,
      "للعام": 5763,
      "##كاديمية": 5764,
      "جدول": 5765,
      "##خلق": 5766,
      "صحي": 5767,
      "بفوز": 5768,
      "##رازيل": 5769,
      "الفئة": 5770,
      "##قليمي": 5771,
      "المختصة": 5772,
      "والأس": 5773,
      "##راغ": 5774,
      "##شارات": 5775,
      "لشؤون": 5776,
      "واد": 5777,
      "##افلة": 5778,
      "رصد": 5779,
      "مبر": 5780,
      "يعتمد": 5781,
      "وتحدث": 5782,
      "خري": 5783,
      "##فير": 5784,
      "المطيري": 5785,
      "اعتقال": 5786,
      "السير": 5787,
      "##ختيار": 5788,
      "البلا": 5789,
      "##حرية": 5790,
      "سام": 5791,
      "زالت": 5792,
      "رك": 5793,
      "معركة": 5794,
      "اتصالات": 5795,
      "##ثور": 5796,
      "قيا": 5797,
      "##ناها": 5798,
      "هما": 5799,
      "الخبراء": 5800,
      "لجان": 5801,
      "##en": 5802,
      "الإعلامية": 5803,
      "##ارئ": 5804,
      "فعلا": 5805,
      "##ربا": 5806,
      "القديم": 5807,
      "الحو": 5808,
      "أعداد": 5809,
      "##علومات": 5810,
      "عص": 5811,
      "مكون": 5812,
      "طفل": 5813,
      "طبيعة": 5814,
      "خطأ": 5815,
      "أست": 5816,
      "إسماعيل": 5817,
      "##ارتها": 5818,
      "##زوج": 5819,
      "ختام": 5820,
      "البلدي": 5821,
      "للانتخابات": 5822,
      "400": 5823,
      "##كرم": 5824,
      "القرية": 5825,
      "تجري": 5826,
      "المحافظات": 5827,
      "##ستها": 5828,
      "زعيم": 5829,
      "انتخاب": 5830,
      "أنفسهم": 5831,
      "أسا": 5832,
      "أبطال": 5833,
      "للحكومة": 5834,
      "##ضعف": 5835,
      "جا": 5836,
      "##نيع": 5837,
      "ذاتها": 5838,
      "حزيران": 5839,
      "صيدا": 5840,
      "الملكية": 5841,
      "النصف": 5842,
      "2015": 5843,
      "ورو": 5844,
      "يساعد": 5845,
      "تداول": 5846,
      "خر": 5847,
      "عربي": 5848,
      "عائ": 5849,
      "##عاة": 5850,
      "##ادرات": 5851,
      "ويجب": 5852,
      "##جاهل": 5853,
      "الأزهر": 5854,
      "الصور": 5855,
      "##هنة": 5856,
      "شقيق": 5857,
      "الجبهة": 5858,
      "الطعام": 5859,
      "لتنفيذ": 5860,
      "لمست": 5861,
      "الموافقة": 5862,
      "حمود": 5863,
      "##ؤولة": 5864,
      "والي": 5865,
      "للدولة": 5866,
      "العمالة": 5867,
      "وتص": 5868,
      "سياق": 5869,
      "##بس": 5870,
      "وأعلن": 5871,
      "يتطلب": 5872,
      "العاش": 5873,
      "فنية": 5874,
      "##طرية": 5875,
      "بمثابة": 5876,
      "المرتبة": 5877,
      "ليكون": 5878,
      "المدى": 5879,
      "الحمل": 5880,
      "##وظ": 5881,
      "يسمى": 5882,
      "تعتمد": 5883,
      "النادى": 5884,
      "للأمم": 5885,
      "الفا": 5886,
      "##قاب": 5887,
      "##كور": 5888,
      "##ماكن": 5889,
      "المجموع": 5890,
      "##ضير": 5891,
      "##ثارة": 5892,
      "##ياتها": 5893,
      "باكستان": 5894,
      "يقف": 5895,
      "العسكرى": 5896,
      "لوكالة": 5897,
      "المخرج": 5898,
      "المنتجات": 5899,
      "هدفا": 5900,
      "##قدام": 5901,
      "يومين": 5902,
      "بالتن": 5903,
      "أحدث": 5904,
      "النب": 5905,
      "تلا": 5906,
      "##جازة": 5907,
      "##خصصات": 5908,
      "مفهوم": 5909,
      "مشرو": 5910,
      "والآ": 5911,
      "مقعد": 5912,
      "فاط": 5913,
      "السلع": 5914,
      "منهما": 5915,
      "إرها": 5916,
      "ناق": 5917,
      "انتظار": 5918,
      "٢٠١": 5919,
      "الأنباء": 5920,
      "##افيين": 5921,
      "النقاط": 5922,
      "2001": 5923,
      "كمال": 5924,
      "استغلال": 5925,
      "النم": 5926,
      "جولة": 5927,
      "##وائح": 5928,
      "يحيى": 5929,
      "##فرت": 5930,
      "الاشترا": 5931,
      "الإيرانية": 5932,
      "المشروعات": 5933,
      "##فور": 5934,
      "خروج": 5935,
      "الاكت": 5936,
      "إنجاز": 5937,
      "يتضمن": 5938,
      "الخصوص": 5939,
      "بدعم": 5940,
      "شيخ": 5941,
      "##حرز": 5942,
      "البرازيل": 5943,
      "لغة": 5944,
      "لخدمة": 5945,
      "والض": 5946,
      "الشعوب": 5947,
      "التسجيل": 5948,
      "الغام": 5949,
      "استقرار": 5950,
      "تساعد": 5951,
      "فم": 5952,
      "الذكر": 5953,
      "##ar": 5954,
      "بتش": 5955,
      "لحماية": 5956,
      "رياض": 5957,
      "الجمعيات": 5958,
      "##رقية": 5959,
      "##ic": 5960,
      "##ماذا": 5961,
      "##تمي": 5962,
      "تؤدي": 5963,
      "00": 5964,
      "الإيج": 5965,
      "الصرف": 5966,
      "للمد": 5967,
      "ياسر": 5968,
      "##يديو": 5969,
      "أسواق": 5970,
      "##بك": 5971,
      "وفا": 5972,
      "خطوات": 5973,
      "ليلة": 5974,
      "تسي": 5975,
      "ومدير": 5976,
      "نشرت": 5977,
      "مباشر": 5978,
      "زوجته": 5979,
      "الانتاج": 5980,
      "##شرت": 5981,
      "وزيرة": 5982,
      "##حيين": 5983,
      "وام": 5984,
      "سفر": 5985,
      "صباحا": 5986,
      "صفقة": 5987,
      "يشت": 5988,
      "شاب": 5989,
      "محددة": 5990,
      "تقدير": 5991,
      "وتعد": 5992,
      "حلم": 5993,
      "هامش": 5994,
      "##حاولة": 5995,
      "ويح": 5996,
      "##جزاء": 5997,
      "والإعلام": 5998,
      "يرفض": 5999,
      "##جو": 6000,
      "قبول": 6001,
      "القادسية": 6002,
      "عوض": 6003,
      "الاتفاقية": 6004,
      "والدكتور": 6005,
      "الاغ": 6006,
      "عبدالم": 6007,
      "الدوس": 6008,
      "وحسب": 6009,
      "والاع": 6010,
      "بالعمل": 6011,
      "الحارس": 6012,
      "اكتشاف": 6013,
      "بالذكر": 6014,
      "الفقر": 6015,
      "##واخر": 6016,
      "##هو": 6017,
      "الهول": 6018,
      "اهمية": 6019,
      "حلب": 6020,
      "يتجاوز": 6021,
      "القبس": 6022,
      "تعب": 6023,
      "نيسان": 6024,
      "47": 6025,
      "أحيانا": 6026,
      "متك": 6027,
      "عبيد": 6028,
      "العائلة": 6029,
      "##وازن": 6030,
      "معسكر": 6031,
      "جنود": 6032,
      "سعاد": 6033,
      "للسي": 6034,
      "ديف": 6035,
      "رف": 6036,
      "خلفية": 6037,
      "الامور": 6038,
      "ديوان": 6039,
      "##أكد": 6040,
      "يهدف": 6041,
      "تابعة": 6042,
      "تعا": 6043,
      "جريمة": 6044,
      "قلق": 6045,
      "52": 6046,
      "##وبين": 6047,
      "الاوسط": 6048,
      "بدوره": 6049,
      "الأساسي": 6050,
      "أرباح": 6051,
      "اثناء": 6052,
      "برصيد": 6053,
      "##نها": 6054,
      "##es": 6055,
      "مفاوضات": 6056,
      "##يميا": 6057,
      "النجم": 6058,
      "المعلم": 6059,
      "معدلات": 6060,
      "قواعد": 6061,
      "قرارا": 6062,
      "العناصر": 6063,
      "##وسائل": 6064,
      "##عارض": 6065,
      "خبراء": 6066,
      "بنحو": 6067,
      "ومص": 6068,
      "##30": 6069,
      "##سبانية": 6070,
      "تعاني": 6071,
      "عضوا": 6072,
      "##يوخ": 6073,
      "##ؤه": 6074,
      "يعرض": 6075,
      "مقات": 6076,
      "الكنيسة": 6077,
      "الناخبين": 6078,
      "##جوء": 6079,
      "اتهم": 6080,
      "##ؤسسة": 6081,
      "##واط": 6082,
      "السياسى": 6083,
      "فخ": 6084,
      "يمر": 6085,
      "المنظمات": 6086,
      "##رعة": 6087,
      "أبدا": 6088,
      "اللعبة": 6089,
      "##لالة": 6090,
      "##يروس": 6091,
      "الشهداء": 6092,
      "المستشفيات": 6093,
      "##انم": 6094,
      "الإلكترونية": 6095,
      "رئيسة": 6096,
      "مطال": 6097,
      "نهيان": 6098,
      "##رافية": 6099,
      "##ولوجية": 6100,
      "##ابس": 6101,
      "مستمرة": 6102,
      "لاسيما": 6103,
      "##خين": 6104,
      "عثمان": 6105,
      "ثابت": 6106,
      "تجعل": 6107,
      "##قاع": 6108,
      "التاسع": 6109,
      "المباحث": 6110,
      "فندق": 6111,
      "نظيره": 6112,
      "ثمانية": 6113,
      "##ابرات": 6114,
      "لحود": 6115,
      "أفغانستان": 6116,
      "الميل": 6117,
      "الفور": 6118,
      "بزيارة": 6119,
      "القم": 6120,
      "ووصف": 6121,
      "ارتفع": 6122,
      "خدم": 6123,
      "سجلت": 6124,
      "##ادته": 6125,
      "الممثل": 6126,
      "الباك": 6127,
      "المناخ": 6128,
      "##هالي": 6129,
      "الاستثمارية": 6130,
      "##وتا": 6131,
      "التالية": 6132,
      "##فه": 6133,
      "الإسرائيلى": 6134,
      "يطلق": 6135,
      "خفض": 6136,
      "##ساءل": 6137,
      "ماجد": 6138,
      "الأجنبية": 6139,
      "ونسبة": 6140,
      "فهذا": 6141,
      "وأد": 6142,
      "دقائق": 6143,
      "الخطوط": 6144,
      "نسمة": 6145,
      "##ائح": 6146,
      "التقليدية": 6147,
      "المطار": 6148,
      "الطبيب": 6149,
      "المقال": 6150,
      "كلين": 6151,
      "الهواء": 6152,
      "وخلال": 6153,
      "رأى": 6154,
      "هكذا": 6155,
      "مديرية": 6156,
      "العري": 6157,
      "الأرج": 6158,
      "تعرضت": 6159,
      "عقده": 6160,
      "اجتماعات": 6161,
      "##جها": 6162,
      "وزيادة": 6163,
      "المجاورة": 6164,
      "تبر": 6165,
      "قاعة": 6166,
      "التقى": 6167,
      "##أمل": 6168,
      "أبي": 6169,
      "احتياجات": 6170,
      "الأور": 6171,
      "##مير": 6172,
      "المساعدة": 6173,
      "يدعو": 6174,
      "لانت": 6175,
      "##لو": 6176,
      "امر": 6177,
      "المهاجم": 6178,
      "صدام": 6179,
      "وتحقيق": 6180,
      "ثقة": 6181,
      "استع": 6182,
      "##عمليات": 6183,
      "لائحة": 6184,
      "جيل": 6185,
      "القليلة": 6186,
      "اليمنية": 6187,
      "ووزير": 6188,
      "##وغان": 6189,
      "التعادل": 6190,
      "الليل": 6191,
      "فلم": 6192,
      "الخلا": 6193,
      "قيد": 6194,
      "بفارق": 6195,
      "وانه": 6196,
      "العائلات": 6197,
      "ثمن": 6198,
      "للجميع": 6199,
      "##ؤها": 6200,
      "التطورات": 6201,
      "ولعل": 6202,
      "للجنة": 6203,
      "أنصار": 6204,
      "المشهد": 6205,
      "##طرا": 6206,
      "خسائر": 6207,
      "##عاف": 6208,
      "##ارض": 6209,
      "اخر": 6210,
      "الاحتفال": 6211,
      "الشمس": 6212,
      "طويل": 6213,
      "يتمكن": 6214,
      "لاحقا": 6215,
      "للمجلس": 6216,
      "##ساوي": 6217,
      "شرك": 6218,
      "سحب": 6219,
      "تصرف": 6220,
      "جع": 6221,
      "##ائمة": 6222,
      "##زاز": 6223,
      "##فرقة": 6224,
      "فيت": 6225,
      "تمكنت": 6226,
      "صعبة": 6227,
      "##غيرات": 6228,
      "بالمئة": 6229,
      "##شستر": 6230,
      "سري": 6231,
      "الجنود": 6232,
      "51": 6233,
      "##راها": 6234,
      "##يارات": 6235,
      "##بيان": 6236,
      "##جأ": 6237,
      "عصام": 6238,
      "##يها": 6239,
      "الطائرات": 6240,
      "والده": 6241,
      "##يطالية": 6242,
      "##حرص": 6243,
      "افت": 6244,
      "نجا": 6245,
      "رام": 6246,
      "السكر": 6247,
      "بكثير": 6248,
      "صعوبة": 6249,
      "بالرياض": 6250,
      "وبناء": 6251,
      "والأمن": 6252,
      "##ياهو": 6253,
      "ناد": 6254,
      "الذهب": 6255,
      "جريدة": 6256,
      "بزيادة": 6257,
      "وكشف": 6258,
      "والى": 6259,
      "##صت": 6260,
      "الصوت": 6261,
      "بالرغم": 6262,
      "طمو": 6263,
      "رضا": 6264,
      "عنهم": 6265,
      "المقدم": 6266,
      "الأمراض": 6267,
      "الميدان": 6268,
      "##يراد": 6269,
      "المتخصصة": 6270,
      "اطلاق": 6271,
      "##جمعات": 6272,
      "والعدالة": 6273,
      "وفيما": 6274,
      "التخطيط": 6275,
      "تشغيل": 6276,
      "لوزارة": 6277,
      "للقوات": 6278,
      "هشام": 6279,
      "الرسالة": 6280,
      "فرح": 6281,
      "وعض": 6282,
      "الامنية": 6283,
      "تقييم": 6284,
      "##هان": 6285,
      "الشكل": 6286,
      "##اوية": 6287,
      "جرائم": 6288,
      "الشت": 6289,
      "مرش": 6290,
      "المسألة": 6291,
      "##بادرات": 6292,
      "ندوة": 6293,
      "54": 6294,
      "وجدت": 6295,
      "الدوسري": 6296,
      "ترامب": 6297,
      "المعلمين": 6298,
      "المواقف": 6299,
      "المرافق": 6300,
      "##ياح": 6301,
      "للشركة": 6302,
      "مند": 6303,
      "##وحات": 6304,
      "##ادثة": 6305,
      "##جرد": 6306,
      "بوزارة": 6307,
      "لمد": 6308,
      "التعا": 6309,
      "وتوفير": 6310,
      "جمعة": 6311,
      "##اطئ": 6312,
      "التطوير": 6313,
      "البترول": 6314,
      "##الغة": 6315,
      "مشددا": 6316,
      "يشار": 6317,
      "حصة": 6318,
      "##ديه": 6319,
      "##طلة": 6320,
      "##وصل": 6321,
      "مبدأ": 6322,
      "الصينية": 6323,
      "الطف": 6324,
      "تهديد": 6325,
      "الوعي": 6326,
      "الارض": 6327,
      "قادرة": 6328,
      "المصالح": 6329,
      "خلاف": 6330,
      "سلطة": 6331,
      "##جنبي": 6332,
      "المدنيين": 6333,
      "باله": 6334,
      "##يدات": 6335,
      "يجوز": 6336,
      "أعتقد": 6337,
      "الخل": 6338,
      "ويعتبر": 6339,
      "مترا": 6340,
      "زيارته": 6341,
      "مواصلة": 6342,
      "الروم": 6343,
      "الحلول": 6344,
      "الحالى": 6345,
      "##فعال": 6346,
      "التاسعة": 6347,
      "وأعرب": 6348,
      "الصادرة": 6349,
      "##at": 6350,
      "عامين": 6351,
      "اعتمد": 6352,
      "ويف": 6353,
      "جزيرة": 6354,
      "المباشر": 6355,
      "استمرت": 6356,
      "الرواية": 6357,
      "الارهاب": 6358,
      "##يرون": 6359,
      "##نياهو": 6360,
      "اعتبارا": 6361,
      "##خلا": 6362,
      "لمنع": 6363,
      "فجر": 6364,
      "##قيه": 6365,
      "##غات": 6366,
      "##مبية": 6367,
      "للسيا": 6368,
      "##يجاد": 6369,
      "وضعت": 6370,
      "الصد": 6371,
      "##ماعة": 6372,
      "انتقال": 6373,
      "مفاج": 6374,
      "المؤلف": 6375,
      "##وأ": 6376,
      "##صين": 6377,
      "وافق": 6378,
      "##بيئة": 6379,
      "منازل": 6380,
      "العاشرة": 6381,
      "##يطان": 6382,
      "درجات": 6383,
      "##ناز": 6384,
      "##ائيات": 6385,
      "تشارك": 6386,
      "تحرك": 6387,
      "##تك": 6388,
      "الاستقلال": 6389,
      "الذهاب": 6390,
      "##ماك": 6391,
      "ناف": 6392,
      "عون": 6393,
      "##راضى": 6394,
      "المحر": 6395,
      "بصفة": 6396,
      "##كيلة": 6397,
      "49": 6398,
      "ويش": 6399,
      "مستح": 6400,
      "وتعزيز": 6401,
      "موجودة": 6402,
      "##al": 6403,
      "والسلام": 6404,
      "يخص": 6405,
      "والاقتصادية": 6406,
      "حققت": 6407,
      "##زوق": 6408,
      "نقد": 6409,
      "والانت": 6410,
      "##هدت": 6411,
      "إف": 6412,
      "قيمتها": 6413,
      "أميركا": 6414,
      "##اغ": 6415,
      "مصير": 6416,
      "جميل": 6417,
      "للات": 6418,
      "لمكافحة": 6419,
      "##كوك": 6420,
      "حكومية": 6421,
      "بوك": 6422,
      "متط": 6423,
      "شعبية": 6424,
      "أصيب": 6425,
      "ضحايا": 6426,
      "الهاتف": 6427,
      "والإن": 6428,
      "البابا": 6429,
      "أدت": 6430,
      "حبيب": 6431,
      "##تمرات": 6432,
      "##يزا": 6433,
      "الآثار": 6434,
      "حفظه": 6435,
      "الهجمات": 6436,
      "نبيل": 6437,
      "الواحدة": 6438,
      "لاد": 6439,
      "إيجاد": 6440,
      "خليج": 6441,
      "قراءة": 6442,
      "##بول": 6443,
      "##ليفزي": 6444,
      "استكمال": 6445,
      "التطور": 6446,
      "ورأى": 6447,
      "أبنائ": 6448,
      "الدنيا": 6449,
      "التل": 6450,
      "التحديات": 6451,
      "كمية": 6452,
      "كاف": 6453,
      "العدوان": 6454,
      "الامين": 6455,
      "##تهى": 6456,
      "تتجاوز": 6457,
      "أرسل": 6458,
      "##راوي": 6459,
      "فكان": 6460,
      "المصابين": 6461,
      "مراقبة": 6462,
      "##موية": 6463,
      "زوجها": 6464,
      "بالان": 6465,
      "فارس": 6466,
      "##زون": 6467,
      "رشيد": 6468,
      "بمس": 6469,
      "غا": 6470,
      "جلسات": 6471,
      "##ديان": 6472,
      "الآسيوية": 6473,
      "##عاص": 6474,
      "يلي": 6475,
      "##زى": 6476,
      "تسمح": 6477,
      "##فلون": 6478,
      "الدوحة": 6479,
      "كاب": 6480,
      "بحلول": 6481,
      "بذ": 6482,
      "كوم": 6483,
      "صي": 6484,
      "الكامل": 6485,
      "الوحدات": 6486,
      "المنازل": 6487,
      "##وقاف": 6488,
      "الألعاب": 6489,
      "##يرادات": 6490,
      "القائد": 6491,
      "ارتفعت": 6492,
      "سجن": 6493,
      "##ائى": 6494,
      "المشاهد": 6495,
      "##ئين": 6496,
      "احتمال": 6497,
      "وسب": 6498,
      "انتق": 6499,
      "##وابط": 6500,
      "الكث": 6501,
      "##زالت": 6502,
      "التوجه": 6503,
      "المريض": 6504,
      "مرمى": 6505,
      "لضمان": 6506,
      "##كتل": 6507,
      "بالكامل": 6508,
      "##غالي": 6509,
      "##صلية": 6510,
      "يطلب": 6511,
      "سباق": 6512,
      "للتنمية": 6513,
      "مسجد": 6514,
      "المنشآت": 6515,
      "مول": 6516,
      "شباط": 6517,
      "تكريم": 6518,
      "القرى": 6519,
      "وتط": 6520,
      "ترح": 6521,
      "نرى": 6522,
      "ومم": 6523,
      "جبهة": 6524,
      "سلوك": 6525,
      "ومنذ": 6526,
      "بجروح": 6527,
      "##وقعة": 6528,
      "تقت": 6529,
      "دعت": 6530,
      "فوزه": 6531,
      "عالميا": 6532,
      "ذهب": 6533,
      "داعيا": 6534,
      "السني": 6535,
      "لاعبين": 6536,
      "التفكير": 6537,
      "بحر": 6538,
      "قيادات": 6539,
      "ألفا": 6540,
      "التهديد": 6541,
      "لفترة": 6542,
      "محادثات": 6543,
      "نيابة": 6544,
      "الفريقين": 6545,
      "النيابية": 6546,
      "يرغب": 6547,
      "الصحفيين": 6548,
      "المشار": 6549,
      "وعلي": 6550,
      "صلاة": 6551,
      "عاصمة": 6552,
      "##ونيا": 6553,
      "يشير": 6554,
      "انتقل": 6555,
      "الصوم": 6556,
      "الإعلامي": 6557,
      "اجتماعا": 6558,
      "القومى": 6559,
      "##يرك": 6560,
      "أوضاع": 6561,
      "السنوي": 6562,
      "والمه": 6563,
      "الملتقى": 6564,
      "المستمر": 6565,
      "##غرق": 6566,
      "##فاقيات": 6567,
      "##ابق": 6568,
      "أستاذ": 6569,
      "الأمريكى": 6570,
      "##طين": 6571,
      "##فتاح": 6572,
      "##روري": 6573,
      "صاح": 6574,
      "الوحيدة": 6575,
      "التعاقد": 6576,
      "الأهلية": 6577,
      "وتقدم": 6578,
      "الول": 6579,
      "تخصيص": 6580,
      "معنى": 6581,
      "صفحة": 6582,
      "##ذي": 6583,
      "اجراء": 6584,
      "والتعاون": 6585,
      "الجمهوري": 6586,
      "##باراة": 6587,
      "وتخ": 6588,
      "نوعية": 6589,
      "##طت": 6590,
      "67": 6591,
      "إنما": 6592,
      "##عال": 6593,
      "لفريق": 6594,
      "الأفضل": 6595,
      "وسل": 6596,
      "السماح": 6597,
      "القطري": 6598,
      "نفسي": 6599,
      "يكت": 6600,
      "يفعل": 6601,
      "بالقاهرة": 6602,
      "الاعتبار": 6603,
      "اهم": 6604,
      "الأنشطة": 6605,
      "##امرة": 6606,
      "عقدت": 6607,
      "بطاقة": 6608,
      "فإذا": 6609,
      "وبحسب": 6610,
      "##لفية": 6611,
      "شوارع": 6612,
      "56": 6613,
      "السبع": 6614,
      "سنت": 6615,
      "يخرج": 6616,
      "طائرات": 6617,
      "يمنع": 6618,
      "##صا": 6619,
      "الحمد": 6620,
      "الصيد": 6621,
      "ناش": 6622,
      "البنية": 6623,
      "بمقر": 6624,
      "الخال": 6625,
      "وطلب": 6626,
      "كأن": 6627,
      "تقام": 6628,
      "بوضع": 6629,
      "السعوديين": 6630,
      "تستمر": 6631,
      "##روات": 6632,
      "##يتين": 6633,
      "نح": 6634,
      "اللائ": 6635,
      "الأحساء": 6636,
      "##يتهم": 6637,
      "إج": 6638,
      "لمصلحة": 6639,
      "يصدر": 6640,
      "##يتد": 6641,
      "57": 6642,
      "خطورة": 6643,
      "##ائهم": 6644,
      "##زه": 6645,
      "حارس": 6646,
      "الاجراءات": 6647,
      "للوصول": 6648,
      "##فالات": 6649,
      "2016": 6650,
      "85": 6651,
      "بعين": 6652,
      "أماكن": 6653,
      "##ناعات": 6654,
      "يستحق": 6655,
      "الاحتياجات": 6656,
      "للشعب": 6657,
      "النفسية": 6658,
      "جذ": 6659,
      "##اليد": 6660,
      "باع": 6661,
      "الأسباب": 6662,
      "أوراق": 6663,
      "كلينتون": 6664,
      "ترتيب": 6665,
      "وسيا": 6666,
      "القضاة": 6667,
      "تصميم": 6668,
      "تخرج": 6669,
      "بعمل": 6670,
      "هجمات": 6671,
      "مؤقت": 6672,
      "تركي": 6673,
      "الحرارة": 6674,
      "بجانب": 6675,
      "##لاحقة": 6676,
      "تراج": 6677,
      "##ادلة": 6678,
      "ردا": 6679,
      "مناسب": 6680,
      "الشبكة": 6681,
      "الموجود": 6682,
      "الأجانب": 6683,
      "##كما": 6684,
      "بتهمة": 6685,
      "53": 6686,
      "الثامن": 6687,
      "نعرف": 6688,
      "##درج": 6689,
      "مجمع": 6690,
      "##زيه": 6691,
      "تصبح": 6692,
      "لوضع": 6693,
      "الاستعداد": 6694,
      "بنا": 6695,
      "العش": 6696,
      "##نه": 6697,
      "المبلغ": 6698,
      "محسن": 6699,
      "اشهر": 6700,
      "تفوق": 6701,
      "انفجار": 6702,
      "السوريين": 6703,
      "نتنياهو": 6704,
      "##كرا": 6705,
      "الجانبين": 6706,
      "المواجهة": 6707,
      "وثيقة": 6708,
      "يعلن": 6709,
      "بخصوص": 6710,
      "خاض": 6711,
      "والخدمات": 6712,
      "وأب": 6713,
      "إصلاح": 6714,
      "اجت": 6715,
      "##لمين": 6716,
      "بمبلغ": 6717,
      "اهداف": 6718,
      "عائل": 6719,
      "باتت": 6720,
      "الفعاليات": 6721,
      "##فاضة": 6722,
      "تخت": 6723,
      "كور": 6724,
      "برعاية": 6725,
      "تقنية": 6726,
      "الخطاب": 6727,
      "انا": 6728,
      "والنصف": 6729,
      "غالبا": 6730,
      "السعيد": 6731,
      "حينما": 6732,
      "تقدر": 6733,
      "الفكرة": 6734,
      "متى": 6735,
      "أسامة": 6736,
      "##ثق": 6737,
      "ذكرى": 6738,
      "ذي": 6739,
      "جاسم": 6740,
      "وطني": 6741,
      "الصعب": 6742,
      "بلدان": 6743,
      "التضامن": 6744,
      "افريقيا": 6745,
      "بكر": 6746,
      "مقابلة": 6747,
      "##كك": 6748,
      "الجنا": 6749,
      "شأنه": 6750,
      "محاكمة": 6751,
      "يكتب": 6752,
      "##فوق": 6753,
      "تفس": 6754,
      "الأولية": 6755,
      "الديموقراطي": 6756,
      "وحر": 6757,
      "برميل": 6758,
      "##نسا": 6759,
      "##سمى": 6760,
      "ساح": 6761,
      "واذا": 6762,
      "دير": 6763,
      "حاكم": 6764,
      "الدولار": 6765,
      "بالمحافظة": 6766,
      "والذين": 6767,
      "انتاج": 6768,
      "حري": 6769,
      "##كنت": 6770,
      "عملها": 6771,
      "الشريعة": 6772,
      "##ناك": 6773,
      "البورصة": 6774,
      "ظهرت": 6775,
      "توفي": 6776,
      "سار": 6777,
      "أراضي": 6778,
      "توقع": 6779,
      "تبدو": 6780,
      "لإعادة": 6781,
      "السريع": 6782,
      "والتم": 6783,
      "اعترف": 6784,
      "وأش": 6785,
      "صنعاء": 6786,
      "الدخل": 6787,
      "الناحية": 6788,
      "المحيط": 6789,
      "مهام": 6790,
      "المصارف": 6791,
      "##بيات": 6792,
      "والمؤ": 6793,
      "يريدون": 6794,
      "193": 6795,
      "لكم": 6796,
      "محطات": 6797,
      "بالدم": 6798,
      "##صرار": 6799,
      "مخالفة": 6800,
      "##ينغ": 6801,
      "علمية": 6802,
      "أشكال": 6803,
      "##نات": 6804,
      "يتمتع": 6805,
      "مخيم": 6806,
      "##مول": 6807,
      "الصحيح": 6808,
      "الأمانة": 6809,
      "##حصاء": 6810,
      "قوانين": 6811,
      "لض": 6812,
      "والبر": 6813,
      "##بيعة": 6814,
      "يتر": 6815,
      "حافظ": 6816,
      "بشدة": 6817,
      "64": 6818,
      "فضل": 6819,
      "تمه": 6820,
      "##ياغة": 6821,
      "الليلة": 6822,
      "اعلنت": 6823,
      "يعقد": 6824,
      "قصيرة": 6825,
      "##ورغ": 6826,
      "##ليين": 6827,
      "نسخة": 6828,
      "##باحث": 6829,
      "##ويم": 6830,
      "العقيد": 6831,
      "ستي": 6832,
      "آب": 6833,
      "مراجعة": 6834,
      "المحامين": 6835,
      "عجز": 6836,
      "فق": 6837,
      "علماء": 6838,
      "خطيرة": 6839,
      "لحزب": 6840,
      "كيلو": 6841,
      "الحرة": 6842,
      "عمره": 6843,
      "الامة": 6844,
      "وأكثر": 6845,
      "هاتف": 6846,
      "حذ": 6847,
      "الشمالي": 6848,
      "إشارة": 6849,
      "مانشستر": 6850,
      "##يور": 6851,
      "##يله": 6852,
      "الاستخبارات": 6853,
      "الجنوبي": 6854,
      "تهم": 6855,
      "حائل": 6856,
      "جهات": 6857,
      "سرعة": 6858,
      "الممار": 6859,
      "##ائز": 6860,
      "القراء": 6861,
      "الدكتورة": 6862,
      "والام": 6863,
      "للمن": 6864,
      "وتقول": 6865,
      "##ويين": 6866,
      "للحزب": 6867,
      "لمناقشة": 6868,
      "##افل": 6869,
      "يستمر": 6870,
      "##ديو": 6871,
      "السائق": 6872,
      "ينظم": 6873,
      "أميركي": 6874,
      "العملاء": 6875,
      "الإرهابية": 6876,
      "الأمني": 6877,
      "زار": 6878,
      "البلدة": 6879,
      "للغ": 6880,
      "نهر": 6881,
      "62": 6882,
      "صحية": 6883,
      "##اضرات": 6884,
      "المعرفة": 6885,
      "البرو": 6886,
      "العالية": 6887,
      "وبه": 6888,
      "جوائز": 6889,
      "إننا": 6890,
      "إغلاق": 6891,
      "مسار": 6892,
      "طيب": 6893,
      "الربيع": 6894,
      "هند": 6895,
      "إست": 6896,
      "للمت": 6897,
      "بذل": 6898,
      "وجم": 6899,
      "##يذ": 6900,
      "استعدادا": 6901,
      "كلما": 6902,
      "والأن": 6903,
      "الثم": 6904,
      "##لاس": 6905,
      "##املين": 6906,
      "الجميل": 6907,
      "##زد": 6908,
      "طالبان": 6909,
      "أسس": 6910,
      "الزعيم": 6911,
      "ببعض": 6912,
      "مشروعات": 6913,
      "السباق": 6914,
      "سياسيا": 6915,
      "##وتي": 6916,
      "المخيم": 6917,
      "الجنائية": 6918,
      "كات": 6919,
      "المفوض": 6920,
      "والتج": 6921,
      "##وقراطية": 6922,
      "ميلان": 6923,
      "اللجوء": 6924,
      "أسلحة": 6925,
      "وسيتم": 6926,
      "##يريا": 6927,
      "##واتف": 6928,
      "الشروط": 6929,
      "كلمات": 6930,
      "شارون": 6931,
      "فوج": 6932,
      "أنني": 6933,
      "66": 6934,
      "##طيات": 6935,
      "##طالبات": 6936,
      "الكتابة": 6937,
      "يمتلك": 6938,
      "التونسية": 6939,
      "##فايات": 6940,
      "بيل": 6941,
      "المجتمعات": 6942,
      "الجزائري": 6943,
      "كريست": 6944,
      "الناش": 6945,
      "يأخذ": 6946,
      "البيع": 6947,
      "الكبار": 6948,
      "الناطق": 6949,
      "مذكرة": 6950,
      "مستمر": 6951,
      "الأساس": 6952,
      "##اولة": 6953,
      "تابع": 6954,
      "القومية": 6955,
      "يؤثر": 6956,
      "58": 6957,
      "وإعادة": 6958,
      "الديمقراطي": 6959,
      "متنوعة": 6960,
      "##افات": 6961,
      "الحرس": 6962,
      "يحدد": 6963,
      "اللذين": 6964,
      "فاطمة": 6965,
      "الافتت": 6966,
      "للاعب": 6967,
      "كتلة": 6968,
      "إرسال": 6969,
      "##يما": 6970,
      "حسام": 6971,
      "الكلمة": 6972,
      "قلت": 6973,
      "تذكر": 6974,
      "للشؤون": 6975,
      "الدائم": 6976,
      "##برات": 6977,
      "الأخضر": 6978,
      "##صورة": 6979,
      "ميت": 6980,
      "غضون": 6981,
      "اصحاب": 6982,
      "لمح": 6983,
      "لعدد": 6984,
      "##يمز": 6985,
      "وسيلة": 6986,
      "##ادها": 6987,
      "جول": 6988,
      "أخيرا": 6989,
      "##شفت": 6990,
      "استقلال": 6991,
      "لتكون": 6992,
      "منطق": 6993,
      "##طون": 6994,
      "المؤشر": 6995,
      "انتهى": 6996,
      "قطاعات": 6997,
      "فش": 6998,
      "الفضاء": 6999,
      "فيل": 7000,
      "##فاهيم": 7001,
      "واضحا": 7002,
      "عكس": 7003,
      "الدراسي": 7004,
      "التحكيم": 7005,
      "الاض": 7006,
      "##عقد": 7007,
      "القاب": 7008,
      "مؤكدة": 7009,
      "اوروبا": 7010,
      "الجودة": 7011,
      "الكرد": 7012,
      "الخر": 7013,
      "##قبة": 7014,
      "##يفي": 7015,
      "خسر": 7016,
      "شأنها": 7017,
      "القا": 7018,
      "خطوط": 7019,
      "رون": 7020,
      "أبواب": 7021,
      "##عيا": 7022,
      "##لفزيونية": 7023,
      "سبل": 7024,
      "##يمون": 7025,
      "##عاش": 7026,
      "##كف": 7027,
      "التشغيل": 7028,
      "لمصر": 7029,
      "##ولون": 7030,
      "طلال": 7031,
      "##قراطية": 7032,
      "وسن": 7033,
      "اقامة": 7034,
      "##ريج": 7035,
      "##قتين": 7036,
      "##وفية": 7037,
      "ضابط": 7038,
      "البطالة": 7039,
      "##وبى": 7040,
      "وهكذا": 7041,
      "أمور": 7042,
      "اعداد": 7043,
      "##سلامية": 7044,
      "##زر": 7045,
      "سامي": 7046,
      "أقرب": 7047,
      "التداول": 7048,
      "المعم": 7049,
      "تستهدف": 7050,
      "##يرن": 7051,
      "##طيل": 7052,
      "اللحظة": 7053,
      "تأخر": 7054,
      "ويأتي": 7055,
      "تنفي": 7056,
      "##قطاب": 7057,
      "تشجيع": 7058,
      "##ئك": 7059,
      "طالما": 7060,
      "مها": 7061,
      "حيال": 7062,
      "لبناء": 7063,
      "##صائل": 7064,
      "##فلونزا": 7065,
      "الظهر": 7066,
      "حلقة": 7067,
      "الوسائل": 7068,
      "واجه": 7069,
      "التشريعية": 7070,
      "وحدات": 7071,
      "رفضت": 7072,
      "##ئن": 7073,
      "لأس": 7074,
      "البقاء": 7075,
      "الكهربائية": 7076,
      "ثانيا": 7077,
      "##وست": 7078,
      "قدره": 7079,
      "الجامعية": 7080,
      "مجموعات": 7081,
      "كميات": 7082,
      "وتحد": 7083,
      "الاهلي": 7084,
      "بقدر": 7085,
      "خيار": 7086,
      "القنوات": 7087,
      "الغامدي": 7088,
      "وليست": 7089,
      "وار": 7090,
      "العص": 7091,
      "خسارة": 7092,
      "وعبر": 7093,
      "##فرج": 7094,
      "الته": 7095,
      "والتس": 7096,
      "تطالب": 7097,
      "الرؤية": 7098,
      "التقارير": 7099,
      "قم": 7100,
      "خال": 7101,
      "مبد": 7102,
      "الاصلاح": 7103,
      "عماد": 7104,
      "استر": 7105,
      "إما": 7106,
      "مدا": 7107,
      "##همين": 7108,
      "معاي": 7109,
      "##فيز": 7110,
      "جاز": 7111,
      "مسير": 7112,
      "رسمي": 7113,
      "مثلما": 7114,
      "##دب": 7115,
      "فلسطينية": 7116,
      "تث": 7117,
      "اجتماعية": 7118,
      "بز": 7119,
      "والمسا": 7120,
      "الخارجي": 7121,
      "اليورو": 7122,
      "ربط": 7123,
      "##قود": 7124,
      "سراح": 7125,
      "أقول": 7126,
      "والاحت": 7127,
      "ثقاف": 7128,
      "معين": 7129,
      "عال": 7130,
      "ابناء": 7131,
      "جمهور": 7132,
      "سائق": 7133,
      "##ابقات": 7134,
      "موسي": 7135,
      "##ينيات": 7136,
      "وصر": 7137,
      "لتص": 7138,
      "يمارس": 7139,
      "الإست": 7140,
      "##رحى": 7141,
      "زميل": 7142,
      "المبنى": 7143,
      "تحاول": 7144,
      "بالمست": 7145,
      "##يطة": 7146,
      "التأثير": 7147,
      "بالقول": 7148,
      "أثبت": 7149,
      "الناتج": 7150,
      "##هى": 7151,
      "وعبد": 7152,
      "الجوي": 7153,
      "فريد": 7154,
      "وكما": 7155,
      "الوظائف": 7156,
      "##وكر": 7157,
      "الأثر": 7158,
      "##ناقض": 7159,
      "استثمار": 7160,
      "الوقود": 7161,
      "عروض": 7162,
      "الاتحادية": 7163,
      "كرم": 7164,
      "المها": 7165,
      "محيط": 7166,
      "يتأ": 7167,
      "##سيد": 7168,
      "شديدة": 7169,
      "##he": 7170,
      "##انه": 7171,
      "لنقل": 7172,
      "الجنرال": 7173,
      "كتابة": 7174,
      "##ؤدي": 7175,
      "روم": 7176,
      "المباشرة": 7177,
      "إنت": 7178,
      "بالمر": 7179,
      "واقت": 7180,
      "اسعار": 7181,
      "محلية": 7182,
      "##مارسة": 7183,
      "##يرى": 7184,
      "واسع": 7185,
      "ممثلة": 7186,
      "77": 7187,
      "الايام": 7188,
      "المرمى": 7189,
      "الازمة": 7190,
      "##هيوني": 7191,
      "دورها": 7192,
      "معايير": 7193,
      "##قلب": 7194,
      "##تو": 7195,
      "وسوريا": 7196,
      "التفاصيل": 7197,
      "للجم": 7198,
      "مخاطر": 7199,
      "الملي": 7200,
      "مشاهد": 7201,
      "اربعة": 7202,
      "أور": 7203,
      "##اقم": 7204,
      "الخلاف": 7205,
      "بدءا": 7206,
      "العاز": 7207,
      "نادى": 7208,
      "بدل": 7209,
      "العيش": 7210,
      "ترشيح": 7211,
      "اصبح": 7212,
      "##سمع": 7213,
      "##لغاء": 7214,
      "روا": 7215,
      "المعركة": 7216,
      "أعوام": 7217,
      "مبيعات": 7218,
      "##ثبات": 7219,
      "وأل": 7220,
      "تجديد": 7221,
      "انخفض": 7222,
      "##وفد": 7223,
      "سك": 7224,
      "##ليمة": 7225,
      "آخرون": 7226,
      "الفضائية": 7227,
      "250": 7228,
      "ضباط": 7229,
      "والصناعة": 7230,
      "الوجه": 7231,
      "ميناء": 7232,
      "الابتدائية": 7233,
      "القل": 7234,
      "##موما": 7235,
      "للدفاع": 7236,
      "##كبة": 7237,
      "للطاقة": 7238,
      "##هوض": 7239,
      "تعم": 7240,
      "##خي": 7241,
      "بعدد": 7242,
      "البيضاء": 7243,
      "حامد": 7244,
      "حف": 7245,
      "##رش": 7246,
      "تلت": 7247,
      "المغربي": 7248,
      "كريم": 7249,
      "والصح": 7250,
      "والاتحاد": 7251,
      "الشرقي": 7252,
      "المري": 7253,
      "الكونغ": 7254,
      "الاقتراع": 7255,
      "عرفات": 7256,
      "أفكار": 7257,
      "فحسب": 7258,
      "الإمام": 7259,
      "المطر": 7260,
      "للسل": 7261,
      "المحاكم": 7262,
      "سبأنت": 7263,
      "طبية": 7264,
      "لث": 7265,
      "الليبية": 7266,
      "انشاء": 7267,
      "##حوا": 7268,
      "التب": 7269,
      "التوتر": 7270,
      "لنفس": 7271,
      "الاستمرار": 7272,
      "قريب": 7273,
      "ينظر": 7274,
      "أسابيع": 7275,
      "##املات": 7276,
      "##ينيا": 7277,
      "لاي": 7278,
      "النوم": 7279,
      "القيم": 7280,
      "72": 7281,
      "##جاجات": 7282,
      "مكث": 7283,
      "للاحت": 7284,
      "الاسم": 7285,
      "وحل": 7286,
      "الموافق": 7287,
      "طرد": 7288,
      "##حانات": 7289,
      "الجيل": 7290,
      "اك": 7291,
      "الشامل": 7292,
      "المجموعات": 7293,
      "ساعد": 7294,
      "للبر": 7295,
      "جملة": 7296,
      "العلي": 7297,
      "موظفي": 7298,
      "وخط": 7299,
      "ضربة": 7300,
      "وأعضاء": 7301,
      "بموا": 7302,
      "ورؤ": 7303,
      "##كانات": 7304,
      "السياسات": 7305,
      "تضع": 7306,
      "درو": 7307,
      "قاسم": 7308,
      "اقل": 7309,
      "تهد": 7310,
      "61": 7311,
      "الحصار": 7312,
      "##وعا": 7313,
      "مكاتب": 7314,
      "الأمل": 7315,
      "قاموا": 7316,
      "الصالح": 7317,
      "##جران": 7318,
      "حذر": 7319,
      "لدول": 7320,
      "العقار": 7321,
      "نقول": 7322,
      "قدرها": 7323,
      "##طاعم": 7324,
      "##نج": 7325,
      "الضحايا": 7326,
      "ومصر": 7327,
      "السكن": 7328,
      "##غى": 7329,
      "63": 7330,
      "الانتقال": 7331,
      "الخبرة": 7332,
      "ورجال": 7333,
      "المخاطر": 7334,
      "الموس": 7335,
      "مسي": 7336,
      "بالمع": 7337,
      "اوب": 7338,
      "مرف": 7339,
      "الأنظمة": 7340,
      "مبينا": 7341,
      "##سيات": 7342,
      "صب": 7343,
      "الناصر": 7344,
      "وبذلك": 7345,
      "وتك": 7346,
      "والفر": 7347,
      "أقدم": 7348,
      "يلتقي": 7349,
      "الآلاف": 7350,
      "الصحفي": 7351,
      "فرقة": 7352,
      "##صدقاء": 7353,
      "متوا": 7354,
      "انجاز": 7355,
      "وصولا": 7356,
      "الإلكتروني": 7357,
      "دراسات": 7358,
      "والبن": 7359,
      "الوسطى": 7360,
      "للمواطنين": 7361,
      "##وائي": 7362,
      "واي": 7363,
      "##رفية": 7364,
      "تحصل": 7365,
      "زع": 7366,
      "اعتقد": 7367,
      "يجمع": 7368,
      "المهنية": 7369,
      "الضمان": 7370,
      "##راعات": 7371,
      "احتجاجا": 7372,
      "فران": 7373,
      "عاج": 7374,
      "##ره": 7375,
      "##بلاط": 7376,
      "قضاء": 7377,
      "مستقب": 7378,
      "تؤثر": 7379,
      "95": 7380,
      "الزهر": 7381,
      "ممت": 7382,
      "وجاءت": 7383,
      "المستح": 7384,
      "##ربط": 7385,
      "التجمع": 7386,
      "تعني": 7387,
      "يونا": 7388,
      "عموما": 7389,
      "السنوية": 7390,
      "للمح": 7391,
      "ميز": 7392,
      "تأهيل": 7393,
      "##فيفة": 7394,
      "عقل": 7395,
      "##01": 7396,
      "السلة": 7397,
      "##زامن": 7398,
      "##ضيفه": 7399,
      "الاستفتاء": 7400,
      "حسابات": 7401,
      "##واحي": 7402,
      "أجواء": 7403,
      "السنيورة": 7404,
      "الفائدة": 7405,
      "الأفلام": 7406,
      "تميز": 7407,
      "وعل": 7408,
      "ملحو": 7409,
      "بتنفيذ": 7410,
      "أصوات": 7411,
      "يشمل": 7412,
      "##ونى": 7413,
      "النجوم": 7414,
      "##طرابات": 7415,
      "وهما": 7416,
      "يفترض": 7417,
      "وظيفة": 7418,
      "##راحات": 7419,
      "لتعزيز": 7420,
      "قانونية": 7421,
      "الاطفال": 7422,
      "حوادث": 7423,
      "جزاء": 7424,
      "أرج": 7425,
      "الظاهرة": 7426,
      "للأن": 7427,
      "##عاصمة": 7428,
      "إنهاء": 7429,
      "##وسم": 7430,
      "##مديد": 7431,
      "موج": 7432,
      "قليل": 7433,
      "الإشارة": 7434,
      "##قيمة": 7435,
      "اليمني": 7436,
      "ابد": 7437,
      "يقبل": 7438,
      "باقي": 7439,
      "وتعتبر": 7440,
      "ماد": 7441,
      "حمدان": 7442,
      "يدرك": 7443,
      "العقود": 7444,
      "لأب": 7445,
      "حلف": 7446,
      "##روحة": 7447,
      "وبما": 7448,
      "قليلا": 7449,
      "##كانيات": 7450,
      "أحكام": 7451,
      "والتش": 7452,
      "68": 7453,
      "الاسباني": 7454,
      "الحكام": 7455,
      "السجون": 7456,
      "ورقة": 7457,
      "مطر": 7458,
      "كفر": 7459,
      "تقف": 7460,
      "يعملون": 7461,
      "مقدمة": 7462,
      "الامريكية": 7463,
      "لتنظيم": 7464,
      "أفلام": 7465,
      "الحماية": 7466,
      "بيئة": 7467,
      "الدوائر": 7468,
      "يونايتد": 7469,
      "سياسات": 7470,
      "وبدأ": 7471,
      "فات": 7472,
      "الصغير": 7473,
      "##شيط": 7474,
      "وخارج": 7475,
      "99": 7476,
      "##ناعية": 7477,
      "القيا": 7478,
      "##شك": 7479,
      "عشرين": 7480,
      "##هاية": 7481,
      "الجارى": 7482,
      "صدرت": 7483,
      "لبحث": 7484,
      "الزيادة": 7485,
      "المستويات": 7486,
      "##بدء": 7487,
      "##ئى": 7488,
      "يهم": 7489,
      "بمركز": 7490,
      "##افى": 7491,
      "الانسحاب": 7492,
      "فهناك": 7493,
      "فنحن": 7494,
      "البول": 7495,
      "تلقي": 7496,
      "هيل": 7497,
      "ووا": 7498,
      "القتل": 7499,
      "غيرها": 7500,
      "##جواب": 7501,
      "قطعة": 7502,
      "بالمد": 7503,
      "ولت": 7504,
      "##قاطع": 7505,
      "هز": 7506,
      "##ئتم": 7507,
      "##نتها": 7508,
      "التأكيد": 7509,
      "الأفراد": 7510,
      "تسا": 7511,
      "امتداد": 7512,
      "شاه": 7513,
      "الضغوط": 7514,
      "الترا": 7515,
      "جنبلاط": 7516,
      "قرابة": 7517,
      "ومل": 7518,
      "شمس": 7519,
      "لتلك": 7520,
      "الرابطة": 7521,
      "الخز": 7522,
      "شريف": 7523,
      "##غلب": 7524,
      "الراهن": 7525,
      "المصلحة": 7526,
      "الطويل": 7527,
      "الأفريقية": 7528,
      "##يوف": 7529,
      "والاد": 7530,
      "ونا": 7531,
      "بعثة": 7532,
      "النفطية": 7533,
      "76": 7534,
      "المشرف": 7535,
      "##راتيجي": 7536,
      "وجميع": 7537,
      "191": 7538,
      "موت": 7539,
      "حدة": 7540,
      "##براز": 7541,
      "لمش": 7542,
      "شاء": 7543,
      "##كيك": 7544,
      "ابرز": 7545,
      "ناس": 7546,
      "الخطأ": 7547,
      "يهدد": 7548,
      "برلين": 7549,
      "فاروق": 7550,
      "زاد": 7551,
      "##اله": 7552,
      "##جمالية": 7553,
      "الجغ": 7554,
      "منزله": 7555,
      "بعيدة": 7556,
      "##كاسب": 7557,
      "الصناعي": 7558,
      "##وضيح": 7559,
      "الخطر": 7560,
      "العثور": 7561,
      "لمعرفة": 7562,
      "##شأ": 7563,
      "تخصص": 7564,
      "البيئية": 7565,
      "##عبي": 7566,
      "شاملة": 7567,
      "2017": 7568,
      "الثنائية": 7569,
      "ورشة": 7570,
      "المسئولين": 7571,
      "الصهيوني": 7572,
      "لأحد": 7573,
      "المبد": 7574,
      "وعمل": 7575,
      "الهجرة": 7576,
      "تيار": 7577,
      "منصبه": 7578,
      "بمعدل": 7579,
      "القذافي": 7580,
      "إقليم": 7581,
      "رش": 7582,
      "تدفع": 7583,
      "الصناعات": 7584,
      "النقاش": 7585,
      "اليابانية": 7586,
      "الايرانية": 7587,
      "حديثة": 7588,
      "تعلن": 7589,
      "السد": 7590,
      "عددها": 7591,
      "##لائه": 7592,
      "الأحوال": 7593,
      "الاوروبية": 7594,
      "بطر": 7595,
      "برج": 7596,
      "أهالي": 7597,
      "192": 7598,
      "لإدارة": 7599,
      "الاعتراف": 7600,
      "تتراوح": 7601,
      "تجم": 7602,
      "وادي": 7603,
      "أراد": 7604,
      "عدنان": 7605,
      "ونظ": 7606,
      "مربع": 7607,
      "قتلوا": 7608,
      "رواية": 7609,
      "يطرح": 7610,
      "الخوف": 7611,
      "##قار": 7612,
      "الحوادث": 7613,
      "واج": 7614,
      "الضرائب": 7615,
      "المنتدى": 7616,
      "الهاد": 7617,
      "بمقد": 7618,
      "##عارضة": 7619,
      "ويضيف": 7620,
      "التصوير": 7621,
      "رابطة": 7622,
      "الأصول": 7623,
      "الايج": 7624,
      "وبت": 7625,
      "تدعم": 7626,
      "للمنتخب": 7627,
      "وأصبح": 7628,
      "تصنيف": 7629,
      "الرج": 7630,
      "بالإس": 7631,
      "النسائية": 7632,
      "لعبة": 7633,
      "تقر": 7634,
      "الكون": 7635,
      "##لاحظات": 7636,
      "بتص": 7637,
      "عوا": 7638,
      "اختبار": 7639,
      "قوي": 7640,
      "يض": 7641,
      "الغال": 7642,
      "أشرف": 7643,
      "الصدر": 7644,
      "تأخذ": 7645,
      "الجدد": 7646,
      "##سعيد": 7647,
      "59": 7648,
      "السج": 7649,
      "شخصيا": 7650,
      "سيتي": 7651,
      "السلبية": 7652,
      "##حون": 7653,
      "المتقدمة": 7654,
      "##سيع": 7655,
      "الخص": 7656,
      "المتأ": 7657,
      "الجبل": 7658,
      "السياسيين": 7659,
      "أخبار": 7660,
      "تخفيض": 7661,
      "بخط": 7662,
      "اعتداء": 7663,
      "وشارك": 7664,
      "للتص": 7665,
      "دخلت": 7666,
      "##ويتر": 7667,
      "##is": 7668,
      "ولأن": 7669,
      "الخمس": 7670,
      "يخدم": 7671,
      "##هيون": 7672,
      "المصرفية": 7673,
      "المستقبلية": 7674,
      "مستقلة": 7675,
      "الأصوات": 7676,
      "تتمتع": 7677,
      "المخابرات": 7678,
      "التكنولوجيا": 7679,
      "##الته": 7680,
      "إيطاليا": 7681,
      "أثار": 7682,
      "##قناع": 7683,
      "120": 7684,
      "العراقيين": 7685,
      "الاراضي": 7686,
      "الدبلوماسية": 7687,
      "##ستور": 7688,
      "##مني": 7689,
      "مصري": 7690,
      "كونا": 7691,
      "وإصابة": 7692,
      "غالبية": 7693,
      "المادية": 7694,
      "الكاملة": 7695,
      "قبيل": 7696,
      "السلوك": 7697,
      "يومي": 7698,
      "وسمو": 7699,
      "تسوية": 7700,
      "ووفقا": 7701,
      "ميزانية": 7702,
      "المرورية": 7703,
      "الليبي": 7704,
      "الفنانة": 7705,
      "##وكب": 7706,
      "الحكومات": 7707,
      "يقال": 7708,
      "ودول": 7709,
      "والمنت": 7710,
      "حسم": 7711,
      "تمهيدا": 7712,
      "لتحسين": 7713,
      "المحيطة": 7714,
      "القصر": 7715,
      "والاعت": 7716,
      "##ريحة": 7717,
      "ولهذا": 7718,
      "رفي": 7719,
      "أدنى": 7720,
      "##عكس": 7721,
      "##غاثة": 7722,
      "##وايا": 7723,
      "للجيش": 7724,
      "مازال": 7725,
      "انطلقت": 7726,
      "بالض": 7727,
      "وذ": 7728,
      "البطولات": 7729,
      "وجل": 7730,
      "##يرل": 7731,
      "استعادة": 7732,
      "الساحل": 7733,
      "العادية": 7734,
      "والاستقرار": 7735,
      "الفاع": 7736,
      "المنافس": 7737,
      "الحمراء": 7738,
      "ليع": 7739,
      "سد": 7740,
      "أعرف": 7741,
      "القريب": 7742,
      "##شرح": 7743,
      "كافية": 7744,
      "1998": 7745,
      "الروح": 7746,
      "منى": 7747,
      "المفترض": 7748,
      "مني": 7749,
      "شاركت": 7750,
      "##ظات": 7751,
      "عدا": 7752,
      "الايطالي": 7753,
      "المشكلات": 7754,
      "للانت": 7755,
      "العروض": 7756,
      "فورا": 7757,
      "شملت": 7758,
      "متطلبات": 7759,
      "##سيط": 7760,
      "العظيم": 7761,
      "مقا": 7762,
      "المحادثات": 7763,
      "##ماج": 7764,
      "بحد": 7765,
      "السلامة": 7766,
      "المالكي": 7767,
      "##زيا": 7768,
      "##لفة": 7769,
      "احتفال": 7770,
      "اعلان": 7771,
      "اهتم": 7772,
      "##وقيع": 7773,
      "جودة": 7774,
      "##ثات": 7775,
      "##قان": 7776,
      "أصول": 7777,
      "الفئات": 7778,
      "##وقت": 7779,
      "للز": 7780,
      "بتر": 7781,
      "الأفكار": 7782,
      "##جنب": 7783,
      "باد": 7784,
      "نيك": 7785,
      "عليك": 7786,
      "ويرى": 7787,
      "لرعاية": 7788,
      "سطح": 7789,
      "المراقب": 7790,
      "الأخبار": 7791,
      "##وظف": 7792,
      "##وعات": 7793,
      "الأربعة": 7794,
      "فئات": 7795,
      "عوامل": 7796,
      "ولبنان": 7797,
      "##ساتذة": 7798,
      "للعد": 7799,
      "بصف": 7800,
      "النزاع": 7801,
      "تدعو": 7802,
      "##وائم": 7803,
      "##اليف": 7804,
      "رغ": 7805,
      "##جنوب": 7806,
      "##حقاق": 7807,
      "71": 7808,
      "شهرا": 7809,
      "وعلم": 7810,
      "سيدة": 7811,
      "عددهم": 7812,
      "بالمملكة": 7813,
      "تايمز": 7814,
      "المتاحة": 7815,
      "التجارب": 7816,
      "الكام": 7817,
      "القوي": 7818,
      "المتع": 7819,
      "تكوين": 7820,
      "كونه": 7821,
      "مصرف": 7822,
      "الهوية": 7823,
      "تتمثل": 7824,
      "الصار": 7825,
      "##نز": 7826,
      "المطالب": 7827,
      "الجيزة": 7828,
      "لاب": 7829,
      "مقاطعة": 7830,
      "##وفة": 7831,
      "بواقع": 7832,
      "انضم": 7833,
      "ضيفه": 7834,
      "##تمكن": 7835,
      "الحلقة": 7836,
      "غيره": 7837,
      "وسيكون": 7838,
      "تخل": 7839,
      "طويلا": 7840,
      "أسط": 7841,
      "وعبدال": 7842,
      "الاقل": 7843,
      "طلبات": 7844,
      "هاش": 7845,
      "اجراءات": 7846,
      "##ثرت": 7847,
      "الأقصى": 7848,
      "القيادات": 7849,
      "##جلات": 7850,
      "القادة": 7851,
      "حظر": 7852,
      "143": 7853,
      "الإقليمية": 7854,
      "ومنع": 7855,
      "الإطار": 7856,
      "ورح": 7857,
      "الصدد": 7858,
      "الجرائم": 7859,
      "##ضمون": 7860,
      "المعايير": 7861,
      "المقدسة": 7862,
      "73": 7863,
      "##منيا": 7864,
      "باستثناء": 7865,
      "الشراكة": 7866,
      "الأمريكيين": 7867,
      "الصيني": 7868,
      "##حرر": 7869,
      "##تاب": 7870,
      "ملم": 7871,
      "اسبوع": 7872,
      "معارض": 7873,
      "باللغة": 7874,
      "الصعبة": 7875,
      "كرد": 7876,
      "المسيحية": 7877,
      "روما": 7878,
      "رفعت": 7879,
      "##it": 7880,
      "74": 7881,
      "استئناف": 7882,
      "المعتقلين": 7883,
      "القروض": 7884,
      "المعي": 7885,
      "المخصصة": 7886,
      "لتحديد": 7887,
      "عامر": 7888,
      "نيوز": 7889,
      "مشعل": 7890,
      "لانه": 7891,
      "وصاحب": 7892,
      "آنذاك": 7893,
      "الأسبق": 7894,
      "##عودية": 7895,
      "ده": 7896,
      "باستمرار": 7897,
      "معروف": 7898,
      "بوتين": 7899,
      "إيجابية": 7900,
      "يختلف": 7901,
      "الأشهر": 7902,
      "التمي": 7903,
      "توسيع": 7904,
      "بقرار": 7905,
      "وجعل": 7906,
      "##قذ": 7907,
      "الشام": 7908,
      "الخلافات": 7909,
      "سما": 7910,
      "الاعتماد": 7911,
      "والعراق": 7912,
      "تزايد": 7913,
      "موجة": 7914,
      "الأوراق": 7915,
      "##بق": 7916,
      "الميزانية": 7917,
      "التربوية": 7918,
      "##ماذج": 7919,
      "##عدى": 7920,
      "اقتراح": 7921,
      "إضافية": 7922,
      "بنظام": 7923,
      "أمريكي": 7924,
      "أز": 7925,
      "##ئل": 7926,
      "السالم": 7927,
      "أبلغ": 7928,
      "الارتفاع": 7929,
      "تلعب": 7930,
      "منتجات": 7931,
      "وحده": 7932,
      "القابضة": 7933,
      "لسان": 7934,
      "سيست": 7935,
      "تجارب": 7936,
      "أواخر": 7937,
      "الصلاة": 7938,
      "مبالغ": 7939,
      "##فاقات": 7940,
      "رجب": 7941,
      "ستن": 7942,
      "لأسباب": 7943,
      "بمح": 7944,
      "##طلعات": 7945,
      "لأكثر": 7946,
      "##قته": 7947,
      "فب": 7948,
      "الإداري": 7949,
      "جنيف": 7950,
      "##جيب": 7951,
      "المركزى": 7952,
      "الفنانين": 7953,
      "يعانون": 7954,
      "برنام": 7955,
      "نساء": 7956,
      "##ra": 7957,
      "المستقلة": 7958,
      "##جاجية": 7959,
      "تسير": 7960,
      "صدي": 7961,
      "يقارب": 7962,
      "دائم": 7963,
      "جوز": 7964,
      "فسي": 7965,
      "والدولية": 7966,
      "##ويف": 7967,
      "الموازنة": 7968,
      "الحيوية": 7969,
      "حاز": 7970,
      "الحسن": 7971,
      "##قيل": 7972,
      "ديفيد": 7973,
      "تقرر": 7974,
      "نجيب": 7975,
      "تعادل": 7976,
      "جير": 7977,
      "تختلف": 7978,
      "أقصى": 7979,
      "سرقة": 7980,
      "المساهمة": 7981,
      "أيلول": 7982,
      "المسار": 7983,
      "قلوب": 7984,
      "استث": 7985,
      "الأحيان": 7986,
      "##حار": 7987,
      "إخراج": 7988,
      "الراهنة": 7989,
      "المار": 7990,
      "تلق": 7991,
      "بالسجن": 7992,
      "##سلم": 7993,
      "تشت": 7994,
      "فين": 7995,
      "سكنية": 7996,
      "الرائد": 7997,
      "##ليك": 7998,
      "أصدرت": 7999,
      "القوية": 8000,
      "للحد": 8001,
      "والبحث": 8002,
      "الاحساء": 8003,
      "الشرف": 8004,
      "حميد": 8005,
      "78": 8006,
      "تقبل": 8007,
      "مشاعر": 8008,
      "غاز": 8009,
      "بلادنا": 8010,
      "##يلية": 8011,
      "وكيفية": 8012,
      "يعبر": 8013,
      "إنهم": 8014,
      "وحين": 8015,
      "المقت": 8016,
      "الشهري": 8017,
      "الأماكن": 8018,
      "وأت": 8019,
      "تحدد": 8020,
      "الشيع": 8021,
      "##رخ": 8022,
      "الاشتراكي": 8023,
      "كلمته": 8024,
      "الانتخاب": 8025,
      "##كاوى": 8026,
      "رحمه": 8027,
      "تول": 8028,
      "##ايا": 8029,
      "##قرية": 8030,
      "والثقافة": 8031,
      "##ركية": 8032,
      "الأدوية": 8033,
      "هلال": 8034,
      "الفنون": 8035,
      "تتطلب": 8036,
      "الانسانية": 8037,
      "ووجه": 8038,
      "بتع": 8039,
      "وأول": 8040,
      "الصع": 8041,
      "الود": 8042,
      "المنتظر": 8043,
      "##يادين": 8044,
      "##يرها": 8045,
      "الفار": 8046,
      "استعمال": 8047,
      "##اضى": 8048,
      "طبقا": 8049,
      "الفتاة": 8050,
      "تحتوي": 8051,
      "تنفيذها": 8052,
      "نكون": 8053,
      "استثمارات": 8054,
      "##اعيات": 8055,
      "راج": 8056,
      "الاستع": 8057,
      "دو": 8058,
      "يتقدم": 8059,
      "التدريبية": 8060,
      "نصيب": 8061,
      "أسلوب": 8062,
      "##رائح": 8063,
      "بجميع": 8064,
      "حدد": 8065,
      "تمتلك": 8066,
      "المقررة": 8067,
      "تسعة": 8068,
      "مكاف": 8069,
      "مدر": 8070,
      "يقدر": 8071,
      "##لامح": 8072,
      "##جام": 8073,
      "انطلاقا": 8074,
      "طبيب": 8075,
      "تكت": 8076,
      "حديثه": 8077,
      "البدء": 8078,
      "اللائحة": 8079,
      "التفاوض": 8080,
      "##قرارات": 8081,
      "جندي": 8082,
      "المعروفة": 8083,
      "##ربون": 8084,
      "صحافي": 8085,
      "مطالبا": 8086,
      "سرا": 8087,
      "المثقف": 8088,
      "ويبدو": 8089,
      "التدريس": 8090,
      "شخصيات": 8091,
      "هوية": 8092,
      "يزور": 8093,
      "أساسي": 8094,
      "##هت": 8095,
      "العقارات": 8096,
      "أقام": 8097,
      "بالتأكيد": 8098,
      "##زلة": 8099,
      "سانت": 8100,
      "##طفاء": 8101,
      "وتحت": 8102,
      "الحريق": 8103,
      "شرعية": 8104,
      "غاية": 8105,
      "ومخ": 8106,
      "##ندسين": 8107,
      "##ستون": 8108,
      "نموذج": 8109,
      "الشيء": 8110,
      "التوقيع": 8111,
      "السياحي": 8112,
      "عقوبات": 8113,
      "اللازم": 8114,
      "##رياء": 8115,
      "##قدة": 8116,
      "شهرين": 8117,
      "##سيك": 8118,
      "الهر": 8119,
      "ونشر": 8120,
      "غضب": 8121,
      "600": 8122,
      "الذكرى": 8123,
      "اشتباكات": 8124,
      "##ديب": 8125,
      "زيد": 8126,
      "يحب": 8127,
      "وتب": 8128,
      "##قترحات": 8129,
      "الأحياء": 8130,
      "نواف": 8131,
      "الانكلي": 8132,
      "تجارية": 8133,
      "##فافية": 8134,
      "إنسان": 8135,
      "توافق": 8136,
      "##ؤتمر": 8137,
      "كونها": 8138,
      "وقتل": 8139,
      "الارها": 8140,
      "اليمين": 8141,
      "صغير": 8142,
      "إقرار": 8143,
      "##كلم": 8144,
      "لز": 8145,
      "ألب": 8146,
      "اشار": 8147,
      "الزهراني": 8148,
      "المحطة": 8149,
      "إيه": 8150,
      "متخصصة": 8151,
      "يعطي": 8152,
      "وإد": 8153,
      "وبالن": 8154,
      "المؤقت": 8155,
      "والأم": 8156,
      "لرفع": 8157,
      "##داقة": 8158,
      "الخطوات": 8159,
      "لاحق": 8160,
      "تدور": 8161,
      "مسافة": 8162,
      "رحل": 8163,
      "الغذاء": 8164,
      "علاء": 8165,
      "##نبلة": 8166,
      "##هدفت": 8167,
      "##ونيس": 8168,
      "##ابير": 8169,
      "القادر": 8170,
      "الجهد": 8171,
      "والثاني": 8172,
      "ويؤكد": 8173,
      "أقيمت": 8174,
      "##يرين": 8175,
      "##ضال": 8176,
      "خار": 8177,
      "المسرحية": 8178,
      "لتع": 8179,
      "اضطر": 8180,
      "##صالح": 8181,
      "تنتهي": 8182,
      "الهيئات": 8183,
      "الدفع": 8184,
      "تولى": 8185,
      "##يقاف": 8186,
      "طلبت": 8187,
      "##عاقة": 8188,
      "والتع": 8189,
      "مرتين": 8190,
      "الخيمة": 8191,
      "##تمدة": 8192,
      "مليونا": 8193,
      "##ونديال": 8194,
      "المستخدم": 8195,
      "حرة": 8196,
      "صاروخ": 8197,
      "جسد": 8198,
      "سبع": 8199,
      "تكلفة": 8200,
      "شرح": 8201,
      "الفوضى": 8202,
      "مفتوحة": 8203,
      "الاتهامات": 8204,
      "للام": 8205,
      "التحرك": 8206,
      "1996": 8207,
      "النفسي": 8208,
      "##ياج": 8209,
      "مالك": 8210,
      "نفى": 8211,
      "نستطيع": 8212,
      "اختصاص": 8213,
      "الرسوم": 8214,
      "الترتيب": 8215,
      "البطر": 8216,
      "##فاه": 8217,
      "تري": 8218,
      "##طلسي": 8219,
      "وأج": 8220,
      "بأعمال": 8221,
      "المنتج": 8222,
      "صديق": 8223,
      "##يليش": 8224,
      "##بارية": 8225,
      "طبيعية": 8226,
      "##طاف": 8227,
      "وجن": 8228,
      "الترج": 8229,
      "تتعرض": 8230,
      "توفيق": 8231,
      "الكيان": 8232,
      "ابتداء": 8233,
      "بتح": 8234,
      "المصالحة": 8235,
      "أطلقت": 8236,
      "لمتابعة": 8237,
      "سعودي": 8238,
      "الواضح": 8239,
      "تاريخية": 8240,
      "##قيبة": 8241,
      "نقلت": 8242,
      "والجم": 8243,
      "غرف": 8244,
      "البريد": 8245,
      "##عوا": 8246,
      "صراع": 8247,
      "أمراض": 8248,
      "طالبا": 8249,
      "آليات": 8250,
      "نسبته": 8251,
      "لقاءات": 8252,
      "الشهير": 8253,
      "تردد": 8254,
      "والشعب": 8255,
      "المجمع": 8256,
      "أساسية": 8257,
      "الممتاز": 8258,
      "القلق": 8259,
      "التوافق": 8260,
      "##بيبة": 8261,
      "يهود": 8262,
      "##فترة": 8263,
      "العامل": 8264,
      "الشيوخ": 8265,
      "أود": 8266,
      "والثانية": 8267,
      "الحاضر": 8268,
      "##ماعيلية": 8269,
      "98": 8270,
      "الياس": 8271,
      "##سو": 8272,
      "لتق": 8273,
      "للقيام": 8274,
      "##عدد": 8275,
      "بمجلس": 8276,
      "محافظات": 8277,
      "لوقف": 8278,
      "عي": 8279,
      "داف": 8280,
      "##ريكا": 8281,
      "أنباء": 8282,
      "وبلغت": 8283,
      "##ينو": 8284,
      "يترك": 8285,
      "أظهرت": 8286,
      "أفاد": 8287,
      "استف": 8288,
      "اللون": 8289,
      "##ماغ": 8290,
      "العثم": 8291,
      "##يفا": 8292,
      "أمرا": 8293,
      "##جوز": 8294,
      "المحامي": 8295,
      "ارتفاعا": 8296,
      "##سيوط": 8297,
      "لحركة": 8298,
      "تعويض": 8299,
      "النسبة": 8300,
      "يكفي": 8301,
      "الادارية": 8302,
      "توقعات": 8303,
      "الصحراء": 8304,
      "ربيع": 8305,
      "للمرأة": 8306,
      "82": 8307,
      "##وقة": 8308,
      "##قس": 8309,
      "##الله": 8310,
      "شرط": 8311,
      "فروع": 8312,
      "للتعليم": 8313,
      "##يابي": 8314,
      "تأليف": 8315,
      "ألقى": 8316,
      "الجزائرية": 8317,
      "لتأ": 8318,
      "دورات": 8319,
      "لأنهم": 8320,
      "القارة": 8321,
      "والتأ": 8322,
      "الإذاعة": 8323,
      "فد": 8324,
      "المجر": 8325,
      "وأنها": 8326,
      "الأدب": 8327,
      "69": 8328,
      "يعكس": 8329,
      "بدورها": 8330,
      "باعتبارها": 8331,
      "مرسي": 8332,
      "انش": 8333,
      "واح": 8334,
      "تجارة": 8335,
      "أقر": 8336,
      "الموسيقى": 8337,
      "تأييد": 8338,
      "العوامل": 8339,
      "نجحت": 8340,
      "بالتنسيق": 8341,
      "القصيم": 8342,
      "الجماعات": 8343,
      "الطائفية": 8344,
      "بيانا": 8345,
      "ملت": 8346,
      "لكون": 8347,
      "أمانة": 8348,
      "كتابه": 8349,
      "##كاية": 8350,
      "##اتين": 8351,
      "رسائل": 8352,
      "##يسر": 8353,
      "##لقي": 8354,
      "عسير": 8355,
      "غادر": 8356,
      "منظومة": 8357,
      "##صلين": 8358,
      "انهيار": 8359,
      "تبني": 8360,
      "والعم": 8361,
      "لاحت": 8362,
      "واعل": 8363,
      "شفيق": 8364,
      "ممثلا": 8365,
      "الدراسية": 8366,
      "ويكون": 8367,
      "وتأتي": 8368,
      "باعتباره": 8369,
      "والتص": 8370,
      "وتحديد": 8371,
      "خز": 8372,
      "يفيد": 8373,
      "يدعى": 8374,
      "##فهم": 8375,
      "النقدية": 8376,
      "والخارج": 8377,
      "ويعد": 8378,
      "أطراف": 8379,
      "تكري": 8380,
      "والسياسية": 8381,
      "##نتيني": 8382,
      "والولايات": 8383,
      "##دامة": 8384,
      "تكاليف": 8385,
      "تنطلق": 8386,
      "البعثة": 8387,
      "##عها": 8388,
      "التصرف": 8389,
      "تتبع": 8390,
      "##وده": 8391,
      "شدد": 8392,
      "القصة": 8393,
      "وبشكل": 8394,
      "والسي": 8395,
      "04": 8396,
      "تعقد": 8397,
      "التأهل": 8398,
      "سيطرة": 8399,
      "الفائز": 8400,
      "وظائف": 8401,
      "الخري": 8402,
      "الشكر": 8403,
      "ولقد": 8404,
      "##صارات": 8405,
      "ترفض": 8406,
      "وطال": 8407,
      "##ظروف": 8408,
      "رغب": 8409,
      "فإنها": 8410,
      "اختلاف": 8411,
      "فتاة": 8412,
      "تنقل": 8413,
      "الإيطالي": 8414,
      "ياسين": 8415,
      "##ستي": 8416,
      "فيهم": 8417,
      "##جعل": 8418,
      "88": 8419,
      "قلة": 8420,
      "تلقت": 8421,
      "خان": 8422,
      "الاساسية": 8423,
      "عاص": 8424,
      "##اتل": 8425,
      "##مون": 8426,
      "المذكورة": 8427,
      "بنتيجة": 8428,
      "ذاك": 8429,
      "##حصل": 8430,
      "الفج": 8431,
      "أنظمة": 8432,
      "##ئيات": 8433,
      "رصيده": 8434,
      "##ناث": 8435,
      "##طلح": 8436,
      "أريد": 8437,
      "نجران": 8438,
      "الفكرية": 8439,
      "وحدها": 8440,
      "81": 8441,
      "كلي": 8442,
      "القبول": 8443,
      "المغربية": 8444,
      "##ئيا": 8445,
      "الديني": 8446,
      "أندية": 8447,
      "##حاكم": 8448,
      "سكر": 8449,
      "المذكور": 8450,
      "وبدأت": 8451,
      "الأسود": 8452,
      "##صدرت": 8453,
      "تويتر": 8454,
      "التربوي": 8455,
      "الائتلاف": 8456,
      "انني": 8457,
      "الحميد": 8458,
      "##ذى": 8459,
      "لزيادة": 8460,
      "##نق": 8461,
      "نائبا": 8462,
      "##وحا": 8463,
      "طراز": 8464,
      "مستخدم": 8465,
      "أض": 8466,
      "##قاها": 8467,
      "فالح": 8468,
      "المباني": 8469,
      "##بكة": 8470,
      "##بيقات": 8471,
      "##ثيف": 8472,
      "حفر": 8473,
      "فني": 8474,
      "موز": 8475,
      "شكره": 8476,
      "والمجتمع": 8477,
      "الخبرات": 8478,
      "تدريبات": 8479,
      "##براط": 8480,
      "كويتي": 8481,
      "##عوام": 8482,
      "دولي": 8483,
      "خاط": 8484,
      "فو": 8485,
      "##يعاب": 8486,
      "الفيديو": 8487,
      "أيار": 8488,
      "هار": 8489,
      "84": 8490,
      "96": 8491,
      "انتصار": 8492,
      "نعيش": 8493,
      "والشباب": 8494,
      "والرياضة": 8495,
      "نار": 8496,
      "للأطفال": 8497,
      "##ساة": 8498,
      "الامريكي": 8499,
      "وأخرى": 8500,
      "جلال": 8501,
      "بمختلف": 8502,
      "التمييز": 8503,
      "##خلة": 8504,
      "أردوغان": 8505,
      "المكون": 8506,
      "##كتابة": 8507,
      "مجا": 8508,
      "ميون": 8509,
      "للمطالبة": 8510,
      "الشقيق": 8511,
      "واص": 8512,
      "القمر": 8513,
      "تبحث": 8514,
      "فاض": 8515,
      "قدمه": 8516,
      "والو": 8517,
      "##شع": 8518,
      "بدي": 8519,
      "##هرا": 8520,
      "لتف": 8521,
      "انعقاد": 8522,
      "وحضر": 8523,
      "بتم": 8524,
      "لست": 8525,
      "جميلة": 8526,
      "الدار": 8527,
      "يحضر": 8528,
      "##ربت": 8529,
      "بحكم": 8530,
      "فيديو": 8531,
      "الالماني": 8532,
      "دب": 8533,
      "##بطية": 8534,
      "معاناة": 8535,
      "الحجاج": 8536,
      "يدل": 8537,
      "واجب": 8538,
      "ذو": 8539,
      "وجهات": 8540,
      "لتوفير": 8541,
      "ضخمة": 8542,
      "يواصل": 8543,
      "مريم": 8544,
      "مماثلة": 8545,
      "غرار": 8546,
      "بارت": 8547,
      "86": 8548,
      "إيقاف": 8549,
      "روبر": 8550,
      "بإمكان": 8551,
      "##صدى": 8552,
      "التشكيل": 8553,
      "العشرات": 8554,
      "لحضور": 8555,
      "المائية": 8556,
      "يرفع": 8557,
      "سويس": 8558,
      "المهني": 8559,
      "والثقافية": 8560,
      "قدرات": 8561,
      "تربط": 8562,
      "لمنت": 8563,
      "وأخيرا": 8564,
      "آي": 8565,
      "ريف": 8566,
      "بالمس": 8567,
      "يثير": 8568,
      "حينها": 8569,
      "مهد": 8570,
      "وشركة": 8571,
      "صوتا": 8572,
      "صواريخ": 8573,
      "##اردة": 8574,
      "التمثيل": 8575,
      "المساجد": 8576,
      "أقوى": 8577,
      "العجم": 8578,
      "الأحمد": 8579,
      "يقيم": 8580,
      "تجهيز": 8581,
      "تساهم": 8582,
      "دوره": 8583,
      "التعديلات": 8584,
      "البراد": 8585,
      "ثان": 8586,
      "##روضة": 8587,
      "##ضار": 8588,
      "وغيرهم": 8589,
      "##روية": 8590,
      "مراد": 8591,
      "واكت": 8592,
      "تتخذ": 8593,
      "أيمن": 8594,
      "##مانة": 8595,
      "الاستاذ": 8596,
      "رأسها": 8597,
      "الجامعي": 8598,
      "المراحل": 8599,
      "والمخ": 8600,
      "الصادرات": 8601,
      "الطيور": 8602,
      "##روز": 8603,
      "المانيا": 8604,
      "وتبين": 8605,
      "##قاليد": 8606,
      "انتقد": 8607,
      "تنتظر": 8608,
      "شىء": 8609,
      "بالطبع": 8610,
      "المرج": 8611,
      "حامل": 8612,
      "مشوار": 8613,
      "التدريبات": 8614,
      "مستقبلا": 8615,
      "المكلف": 8616,
      "والإد": 8617,
      "لبنانية": 8618,
      "##واي": 8619,
      "بمعنى": 8620,
      "أشارت": 8621,
      "الاعلان": 8622,
      "تفرض": 8623,
      "##حكم": 8624,
      "المدرسية": 8625,
      "النبي": 8626,
      "السليم": 8627,
      "سلطات": 8628,
      "سوري": 8629,
      "##تمت": 8630,
      "عثر": 8631,
      "والمل": 8632,
      "بانه": 8633,
      "##لفات": 8634,
      "يعادل": 8635,
      "##ركي": 8636,
      "ويق": 8637,
      "للض": 8638,
      "لليوم": 8639,
      "تحالف": 8640,
      "##روعة": 8641,
      "##ائلا": 8642,
      "يرد": 8643,
      "قضائية": 8644,
      "السوداء": 8645,
      "لاعبا": 8646,
      "##طرت": 8647,
      "الكم": 8648,
      "إسرائيلية": 8649,
      "رونالد": 8650,
      "بندر": 8651,
      "فول": 8652,
      "##داولات": 8653,
      "العظم": 8654,
      "الانفجار": 8655,
      "##شرون": 8656,
      "للبنان": 8657,
      "##غطية": 8658,
      "##زايا": 8659,
      "تعريف": 8660,
      "المبر": 8661,
      "مبادئ": 8662,
      "استقال": 8663,
      "نهائيا": 8664,
      "مصرية": 8665,
      "##ظن": 8666,
      "لأننا": 8667,
      "##هيلات": 8668,
      "افتتح": 8669,
      "لجهة": 8670,
      "خبرة": 8671,
      "طيلة": 8672,
      "أنشطة": 8673,
      "يضمن": 8674,
      "##وارث": 8675,
      "##اتم": 8676,
      "##فين": 8677,
      "لتر": 8678,
      "الصفقة": 8679,
      "##ومين": 8680,
      "يكونوا": 8681,
      "والرئيس": 8682,
      "الوقوف": 8683,
      "##ظهار": 8684,
      "##ردين": 8685,
      "##ذان": 8686,
      "القتال": 8687,
      "##وصيات": 8688,
      "اليونان": 8689,
      "متت": 8690,
      "##صير": 8691,
      "المطب": 8692,
      "##لث": 8693,
      "الصواريخ": 8694,
      "بعث": 8695,
      "اتفق": 8696,
      "الغد": 8697,
      "النهار": 8698,
      "يتناول": 8699,
      "تتأ": 8700,
      "##ريحات": 8701,
      "الده": 8702,
      "فنان": 8703,
      "نسي": 8704,
      "مراقب": 8705,
      "المخالفات": 8706,
      "مقاومة": 8707,
      "##جدات": 8708,
      "عنا": 8709,
      "قدما": 8710,
      "97": 8711,
      "بأنهم": 8712,
      "صناديق": 8713,
      "سعادة": 8714,
      "المنظ": 8715,
      "مسؤولي": 8716,
      "ومنت": 8717,
      "##وضوح": 8718,
      "القتلى": 8719,
      "##قيلة": 8720,
      "للبحث": 8721,
      "##ستانية": 8722,
      "القطرية": 8723,
      "فكيف": 8724,
      "الكلمات": 8725,
      "##فساد": 8726,
      "##ندى": 8727,
      "##انو": 8728,
      "امل": 8729,
      "متحدث": 8730,
      "##صنة": 8731,
      "الأسئلة": 8732,
      "شهود": 8733,
      "بالتع": 8734,
      "##برة": 8735,
      "دام": 8736,
      "الزميل": 8737,
      "يوف": 8738,
      "اللقاءات": 8739,
      "الطالبات": 8740,
      "الفرع": 8741,
      "انسحاب": 8742,
      "مصنع": 8743,
      "العائد": 8744,
      "البحوث": 8745,
      "اربع": 8746,
      "وحيد": 8747,
      "##طفل": 8748,
      "ليون": 8749,
      "##بعوث": 8750,
      "##دل": 8751,
      "وزوج": 8752,
      "الهندسة": 8753,
      "79": 8754,
      "المنز": 8755,
      "##ابعت": 8756,
      "##ثث": 8757,
      "الالكترونية": 8758,
      "السلطان": 8759,
      "تركز": 8760,
      "تبد": 8761,
      "##ابهة": 8762,
      "##ياع": 8763,
      "إسرائيلي": 8764,
      "وتحديدا": 8765,
      "##ماعي": 8766,
      "تحليل": 8767,
      "البحري": 8768,
      "##ئوية": 8769,
      "المتوسطة": 8770,
      "للقضاء": 8771,
      "واصل": 8772,
      "وتمت": 8773,
      "يعيد": 8774,
      "تغطية": 8775,
      "الوثائق": 8776,
      "##وطة": 8777,
      "##الثة": 8778,
      "##فاءات": 8779,
      "##وزراء": 8780,
      "أيد": 8781,
      "مخاوف": 8782,
      "87": 8783,
      "فكل": 8784,
      "##ليفزيون": 8785,
      "مسؤولون": 8786,
      "واجتما": 8787,
      "##ساءة": 8788,
      "يذهب": 8789,
      "إت": 8790,
      "غازي": 8791,
      "بطلب": 8792,
      "الكمبي": 8793,
      "منف": 8794,
      "عراق": 8795,
      "يتحمل": 8796,
      "الهولندي": 8797,
      "داخلية": 8798,
      "أيدي": 8799,
      "ملحوظ": 8800,
      "يونس": 8801,
      "حاس": 8802,
      "عملا": 8803,
      "تحولت": 8804,
      "المسيحيين": 8805,
      "الإر": 8806,
      "سرية": 8807,
      "والله": 8808,
      "السعد": 8809,
      "مقاعد": 8810,
      "المراقبة": 8811,
      "مهارات": 8812,
      "قرى": 8813,
      "بسيطة": 8814,
      "##ضائع": 8815,
      "اصط": 8816,
      "الاسواق": 8817,
      "كس": 8818,
      "##ومه": 8819,
      "مستعد": 8820,
      "1997": 8821,
      "الطويلة": 8822,
      "لعل": 8823,
      "العجز": 8824,
      "مضاع": 8825,
      "واتهم": 8826,
      "حسنى": 8827,
      "##بنية": 8828,
      "الخسائر": 8829,
      "غريب": 8830,
      "ليصل": 8831,
      "يان": 8832,
      "##يميائية": 8833,
      "جوانب": 8834,
      "باخت": 8835,
      "الطبيعة": 8836,
      "أحب": 8837,
      "لإجراء": 8838,
      "أعماله": 8839,
      "محضر": 8840,
      "##بلاغ": 8841,
      "بفعل": 8842,
      "الجميلة": 8843,
      "لهما": 8844,
      "الياباني": 8845,
      "يكشف": 8846,
      "فير": 8847,
      "83": 8848,
      "سنتين": 8849,
      "الحيوانات": 8850,
      "الموصل": 8851,
      "تدمير": 8852,
      "ريالا": 8853,
      "##سلامة": 8854,
      "لإقامة": 8855,
      "وحماية": 8856,
      "##ارتين": 8857,
      "عرضا": 8858,
      "لسم": 8859,
      "حج": 8860,
      "الأبحاث": 8861,
      "##همال": 8862,
      "منتج": 8863,
      "البت": 8864,
      "يشبه": 8865,
      "تدريبية": 8866,
      "تبوك": 8867,
      "800": 8868,
      "باحت": 8869,
      "منظمات": 8870,
      "وبعدها": 8871,
      "الخمسة": 8872,
      "ادى": 8873,
      "##عايير": 8874,
      "يساهم": 8875,
      "ووزارة": 8876,
      "المتقدم": 8877,
      "تمنح": 8878,
      "طبعا": 8879,
      "امين": 8880,
      "المرح": 8881,
      "خوض": 8882,
      "رئا": 8883,
      "وصرح": 8884,
      "91": 8885,
      "تسب": 8886,
      "الخسارة": 8887,
      "الكف": 8888,
      "الإسكان": 8889,
      "مازالت": 8890,
      "يدعم": 8891,
      "##شدد": 8892,
      "تقيم": 8893,
      "أغنية": 8894,
      "غذ": 8895,
      "الآسيوي": 8896,
      "##روك": 8897,
      "##نعة": 8898,
      "نوعا": 8899,
      "وقامت": 8900,
      "ومركز": 8901,
      "السكانية": 8902,
      "للفوز": 8903,
      "##اوي": 8904,
      "جدد": 8905,
      "كندا": 8906,
      "##وسة": 8907,
      "حقا": 8908,
      "طيبة": 8909,
      "التصريحات": 8910,
      "العوا": 8911,
      "##غبين": 8912,
      "الحقائق": 8913,
      "##ويج": 8914,
      "التعرف": 8915,
      "طيران": 8916,
      "استاد": 8917,
      "الشك": 8918,
      "المتح": 8919,
      "أهمها": 8920,
      "المتعددة": 8921,
      "ستست": 8922,
      "السرعة": 8923,
      "خرجت": 8924,
      "حسني": 8925,
      "المسيرة": 8926,
      "العاشر": 8927,
      "##كيا": 8928,
      "التاريخي": 8929,
      "إزاء": 8930,
      "إذن": 8931,
      "##طوم": 8932,
      "لحين": 8933,
      "النارية": 8934,
      "بجد": 8935,
      "بقا": 8936,
      "سريعا": 8937,
      "البقاع": 8938,
      "الباطن": 8939,
      "للتحقيق": 8940,
      "الحريات": 8941,
      "03": 8942,
      "##ذير": 8943,
      "##برع": 8944,
      "##قلق": 8945,
      "توظيف": 8946,
      "تخط": 8947,
      "##بان": 8948,
      "##ريبية": 8949,
      "##ولان": 8950,
      "الزراعي": 8951,
      "مرج": 8952,
      "إزالة": 8953,
      "تقدمها": 8954,
      "##مور": 8955,
      "مور": 8956,
      "##عديل": 8957,
      "الفيصل": 8958,
      "فائ": 8959,
      "كسب": 8960,
      "كتبت": 8961,
      "##كسر": 8962,
      "##وفى": 8963,
      "السرطان": 8964,
      "##واها": 8965,
      "القريبة": 8966,
      "##سق": 8967,
      "ومتابعة": 8968,
      "الحوا": 8969,
      "بنفسه": 8970,
      "الساعات": 8971,
      "المحترفين": 8972,
      "والتر": 8973,
      "يمنح": 8974,
      "حدثت": 8975,
      "01": 8976,
      "##ion": 8977,
      "أكاديم": 8978,
      "لإسرائيل": 8979,
      "نظيف": 8980,
      "##ئر": 8981,
      "##صحيفة": 8982,
      "##وضة": 8983,
      "يسي": 8984,
      "تفيد": 8985,
      "المتميز": 8986,
      "معنا": 8987,
      "وقي": 8988,
      "الإح": 8989,
      "مناص": 8990,
      "##قابل": 8991,
      "متع": 8992,
      "##ضعاف": 8993,
      "تقدمت": 8994,
      "يتوقف": 8995,
      "بالمن": 8996,
      "تمثيل": 8997,
      "خش": 8998,
      "النبات": 8999,
      "العبدال": 9000,
      "تكرار": 9001,
      "لمساعدة": 9002,
      "##امعات": 9003,
      "التمر": 9004,
      "الأردنية": 9005,
      "الأراضى": 9006,
      "##وكا": 9007,
      "الائتم": 9008,
      "ضغوط": 9009,
      "الدوا": 9010,
      "والتدريب": 9011,
      "البو": 9012,
      "تتحدث": 9013,
      "الارج": 9014,
      "إعطاء": 9015,
      "شو": 9016,
      "مصرع": 9017,
      "##مات": 9018,
      "##زاع": 9019,
      "سمع": 9020,
      "عاط": 9021,
      "يقومون": 9022,
      "##ارعين": 9023,
      "عادت": 9024,
      "مسئ": 9025,
      "وينت": 9026,
      "##قوب": 9027,
      "رسوم": 9028,
      "لتت": 9029,
      "برفع": 9030,
      "مشاركته": 9031,
      "##خوان": 9032,
      "عقوبة": 9033,
      "زوجة": 9034,
      "القراءة": 9035,
      "##فعاليات": 9036,
      "المطالبة": 9037,
      "##مارات": 9038,
      "الأجواء": 9039,
      "الفارق": 9040,
      "##وطين": 9041,
      "دوما": 9042,
      "مائة": 9043,
      "عزم": 9044,
      "قا": 9045,
      "الكريمة": 9046,
      "قس": 9047,
      "##غام": 9048,
      "##مته": 9049,
      "لشراء": 9050,
      "بالث": 9051,
      "الميلاد": 9052,
      "زادت": 9053,
      "تمارس": 9054,
      "التوازن": 9055,
      "##ستير": 9056,
      "##هيونية": 9057,
      "تعبر": 9058,
      "مرح": 9059,
      "يقضي": 9060,
      "أفادت": 9061,
      "وإح": 9062,
      "الفتيات": 9063,
      "يوفر": 9064,
      "هاشم": 9065,
      "صحف": 9066,
      "وجهت": 9067,
      "روب": 9068,
      "جازان": 9069,
      "##كراد": 9070,
      "إرهابية": 9071,
      "شامل": 9072,
      "للتعاون": 9073,
      "##ائط": 9074,
      "القانوني": 9075,
      "الشاملة": 9076,
      "المقات": 9077,
      "فلسطيني": 9078,
      "الفرقة": 9079,
      "وتنفيذ": 9080,
      "شهور": 9081,
      "لبل": 9082,
      "جس": 9083,
      "المواضيع": 9084,
      "الجوانب": 9085,
      "تمنع": 9086,
      "النجمة": 9087,
      "المعسكر": 9088,
      "ملامح": 9089,
      "تعكس": 9090,
      "توصل": 9091,
      "وتنظيم": 9092,
      "وقفة": 9093,
      "الجارية": 9094,
      "##يلا": 9095,
      "##قالات": 9096,
      "السعر": 9097,
      "رسول": 9098,
      "قنوات": 9099,
      "والقانون": 9100,
      "عائد": 9101,
      "بيننا": 9102,
      "والحكومة": 9103,
      "مكانة": 9104,
      "تلفزيون": 9105,
      "جثة": 9106,
      "##برية": 9107,
      "جوهر": 9108,
      "الإعداد": 9109,
      "يعنى": 9110,
      "##داة": 9111,
      "ومؤسسات": 9112,
      "التنموية": 9113,
      "الآلي": 9114,
      "ومسؤول": 9115,
      "تهدد": 9116,
      "النيران": 9117,
      "بهدفين": 9118,
      "استهدفت": 9119,
      "##اجه": 9120,
      "##طنبول": 9121,
      "الودية": 9122,
      "##بعث": 9123,
      "لعمل": 9124,
      "جنيها": 9125,
      "فحص": 9126,
      "معي": 9127,
      "بقوله": 9128,
      "تفقد": 9129,
      "المفوضية": 9130,
      "طبيعي": 9131,
      "##كه": 9132,
      "##منين": 9133,
      "المديرية": 9134,
      "وتاريخ": 9135,
      "##سكي": 9136,
      "يخوض": 9137,
      "التضخم": 9138,
      "##هيد": 9139,
      "عنصر": 9140,
      "اتهام": 9141,
      "دارفور": 9142,
      "والجز": 9143,
      "البعيد": 9144,
      "النفايات": 9145,
      "التحول": 9146,
      "مارك": 9147,
      "##اندة": 9148,
      "الممارسات": 9149,
      "الذهبية": 9150,
      "لاستقبال": 9151,
      "خميس": 9152,
      "الصدارة": 9153,
      "يفكر": 9154,
      "كنيسة": 9155,
      "##ورن": 9156,
      "الاعضاء": 9157,
      "الحكمة": 9158,
      "هج": 9159,
      "##ماهير": 9160,
      "بأكثر": 9161,
      "إصاب": 9162,
      "لولا": 9163,
      "سود": 9164,
      "مديرة": 9165,
      "رؤوس": 9166,
      "نجاد": 9167,
      "##ربول": 9168,
      "بإعادة": 9169,
      "محدودة": 9170,
      "وبل": 9171,
      "لاحظ": 9172,
      "وفتح": 9173,
      "##ادتها": 9174,
      "معن": 9175,
      "##جيرات": 9176,
      "لوحة": 9177,
      "أمريكية": 9178,
      "تصف": 9179,
      "للمش": 9180,
      "حاولت": 9181,
      "سبا": 9182,
      "هادي": 9183,
      "##كررة": 9184,
      "صاد": 9185,
      "وحقوق": 9186,
      "سلبية": 9187,
      "بينه": 9188,
      "حياتهم": 9189,
      "الاستشار": 9190,
      "النيابي": 9191,
      "الدورات": 9192,
      "##التزام": 9193,
      "بند": 9194,
      "مساهمة": 9195,
      "##فيهية": 9196,
      "الكمبيوتر": 9197,
      "الملاب": 9198,
      "مسرحية": 9199,
      "حسبما": 9200,
      "بالمركز": 9201,
      "يعيشون": 9202,
      "##صلا": 9203,
      "شت": 9204,
      "##وبيا": 9205,
      "وقتها": 9206,
      "خض": 9207,
      "شهداء": 9208,
      "بطول": 9209,
      "##كز": 9210,
      "والاه": 9211,
      "##دام": 9212,
      "مشاركت": 9213,
      "مسؤولين": 9214,
      "الثابت": 9215,
      "حوله": 9216,
      "##والي": 9217,
      "##فسنا": 9218,
      "أهالى": 9219,
      "##لزال": 9220,
      "سريعة": 9221,
      "صعب": 9222,
      "المستمرة": 9223,
      "##اشات": 9224,
      "فترات": 9225,
      "الإسلامى": 9226,
      "تنا": 9227,
      "صادر": 9228,
      "ماري": 9229,
      "وتشجيع": 9230,
      "بالدمام": 9231,
      "متف": 9232,
      "الجوائز": 9233,
      "الأكاديمية": 9234,
      "1995": 9235,
      "بالات": 9236,
      "هاد": 9237,
      "كه": 9238,
      "##غياب": 9239,
      "94": 9240,
      "صقر": 9241,
      "مشرف": 9242,
      "المتميزة": 9243,
      "##واني": 9244,
      "##حاسب": 9245,
      "نظرة": 9246,
      "وعضو": 9247,
      "البرتغالي": 9248,
      "الزوار": 9249,
      "لعملية": 9250,
      "بتشكيل": 9251,
      "##قيت": 9252,
      "##وتها": 9253,
      "##شال": 9254,
      "تقسيم": 9255,
      "يحق": 9256,
      "##كاء": 9257,
      "الالكتروني": 9258,
      "##سحب": 9259,
      "##لتين": 9260,
      "للقانون": 9261,
      "استهلاك": 9262,
      "التوفيق": 9263,
      "##قدرة": 9264,
      "الإنساني": 9265,
      "الأخطاء": 9266,
      "جيم": 9267,
      "تلبية": 9268,
      "وعليه": 9269,
      "وحصل": 9270,
      "صلة": 9271,
      "وأصيب": 9272,
      "##تهن": 9273,
      "ردود": 9274,
      "هامة": 9275,
      "السريعة": 9276,
      "لكننا": 9277,
      "وحسن": 9278,
      "ثقافية": 9279,
      "إمارة": 9280,
      "الافتتاح": 9281,
      "الهندية": 9282,
      "92": 9283,
      "ازد": 9284,
      "لويس": 9285,
      "للشركات": 9286,
      "وامت": 9287,
      "ليصبح": 9288,
      "كارل": 9289,
      "أجزاء": 9290,
      "العكس": 9291,
      "مؤشرات": 9292,
      "تحدثت": 9293,
      "المنتخبات": 9294,
      "##فتتح": 9295,
      "للبلاد": 9296,
      "##واهر": 9297,
      "بحثا": 9298,
      "صياغة": 9299,
      "الإنجليزية": 9300,
      "الذاتية": 9301,
      "قصف": 9302,
      "فلن": 9303,
      "يسجل": 9304,
      "سكن": 9305,
      "لوجود": 9306,
      "توت": 9307,
      "وردا": 9308,
      "المخل": 9309,
      "عامي": 9310,
      "وأفاد": 9311,
      "تفجير": 9312,
      "جواز": 9313,
      "طالبت": 9314,
      "كاتب": 9315,
      "##قها": 9316,
      "تجرب": 9317,
      "##خاب": 9318,
      "قويا": 9319,
      "##تيلا": 9320,
      "توج": 9321,
      "##سيل": 9322,
      "وتل": 9323,
      "##رنا": 9324,
      "مئة": 9325,
      "معارضة": 9326,
      "الشهيرة": 9327,
      "قائلة": 9328,
      "ورا": 9329,
      "الانتقالية": 9330,
      "لتخ": 9331,
      "##راجات": 9332,
      "##فرغ": 9333,
      "بكين": 9334,
      "عميد": 9335,
      "الماضيين": 9336,
      "اداء": 9337,
      "نسبيا": 9338,
      "نبيه": 9339,
      "##ظلم": 9340,
      "##تت": 9341,
      "بحرية": 9342,
      "للدول": 9343,
      "محور": 9344,
      "بقاء": 9345,
      "##قتهم": 9346,
      "يحتوي": 9347,
      "##يلاء": 9348,
      "يتعين": 9349,
      "اصبحت": 9350,
      "والتجارة": 9351,
      "##ليها": 9352,
      "العماد": 9353,
      "القاسم": 9354,
      "عط": 9355,
      "89": 9356,
      "متخصص": 9357,
      "شمل": 9358,
      "رئيسية": 9359,
      "الاختصاص": 9360,
      "واشت": 9361,
      "اختار": 9362,
      "صالة": 9363,
      "والشركات": 9364,
      "وبالنسبة": 9365,
      "عهده": 9366,
      "رائعة": 9367,
      "الواردة": 9368,
      "##وطنات": 9369,
      "ساهمت": 9370,
      "الدورى": 9371,
      "وأعلنت": 9372,
      "سعادته": 9373,
      "##تراك": 9374,
      "بلقب": 9375,
      "قريبة": 9376,
      "##حادي": 9377,
      "الأسماء": 9378,
      "اكتشف": 9379,
      "##لاقية": 9380,
      "##سيخ": 9381,
      "الداع": 9382,
      "لدرجة": 9383,
      "عمار": 9384,
      "التشي": 9385,
      "وانما": 9386,
      "سينما": 9387,
      "للحفاظ": 9388,
      "المتب": 9389,
      "بكلية": 9390,
      "الملفات": 9391,
      "##غلق": 9392,
      "##جمعيات": 9393,
      "احتلال": 9394,
      "وتشير": 9395,
      "مخط": 9396,
      "الخلايا": 9397,
      "##نتظر": 9398,
      "التصفيات": 9399,
      "الهم": 9400,
      "تحسن": 9401,
      "أسفر": 9402,
      "روات": 9403,
      "إلقاء": 9404,
      "أجريت": 9405,
      "مطالبة": 9406,
      "الاعلى": 9407,
      "الشعراء": 9408,
      "دستور": 9409,
      "إلكتر": 9410,
      "تحديدا": 9411,
      "وتحسين": 9412,
      "للسياحة": 9413,
      "##حاس": 9414,
      "1994": 9415,
      "سيم": 9416,
      "وبط": 9417,
      "##غاف": 9418,
      "##ثى": 9419,
      "قند": 9420,
      "الإطلاق": 9421,
      "المخط": 9422,
      "إنقاذ": 9423,
      "يفرض": 9424,
      "الكو": 9425,
      "ويشارك": 9426,
      "وفاز": 9427,
      "##نيابة": 9428,
      "يدور": 9429,
      "الفلاح": 9430,
      "الرغبة": 9431,
      "انح": 9432,
      "##فان": 9433,
      "##وقيت": 9434,
      "البري": 9435,
      "الشخصي": 9436,
      "للطيران": 9437,
      "للنظام": 9438,
      "اساس": 9439,
      "##اهة": 9440,
      "العضو": 9441,
      "التراجع": 9442,
      "الاختيار": 9443,
      "عراقي": 9444,
      "خوفا": 9445,
      "حث": 9446,
      "مشكلات": 9447,
      "انما": 9448,
      "حيدر": 9449,
      "وارتفاع": 9450,
      "عات": 9451,
      "تصاعد": 9452,
      "قاط": 9453,
      "معروفة": 9454,
      "##رامكو": 9455,
      "##فاقم": 9456,
      "الدعوى": 9457,
      "##عدت": 9458,
      "والأخ": 9459,
      "##دو": 9460,
      "العناية": 9461,
      "والدي": 9462,
      "محاكم": 9463,
      "الأصل": 9464,
      "تسل": 9465,
      "قالوا": 9466,
      "ركلة": 9467,
      "علامة": 9468,
      "رعا": 9469,
      "##وشي": 9470,
      "الخطط": 9471,
      "لقطاع": 9472,
      "البشري": 9473,
      "##زايدة": 9474,
      "ولماذا": 9475,
      "وكالات": 9476,
      "فازت": 9477,
      "اولا": 9478,
      "الاجتماعات": 9479,
      "المصرفي": 9480,
      "##وافر": 9481,
      "تطلب": 9482,
      "قذ": 9483,
      "شتى": 9484,
      "ملتقى": 9485,
      "الأمطار": 9486,
      "أعقاب": 9487,
      "الكتلة": 9488,
      "بتأ": 9489,
      "توافر": 9490,
      "##نافسة": 9491,
      "الوزن": 9492,
      "وافقت": 9493,
      "##اليين": 9494,
      "بالي": 9495,
      "ايجاد": 9496,
      "مطلق": 9497,
      "الطيب": 9498,
      "مساعدات": 9499,
      "##احنات": 9500,
      "جعفر": 9501,
      "يؤمن": 9502,
      "النسب": 9503,
      "##ro": 9504,
      "شعبان": 9505,
      "##امح": 9506,
      "##ستين": 9507,
      "بتنظيم": 9508,
      "اسماعيل": 9509,
      "يقرب": 9510,
      "صعود": 9511,
      "بحجة": 9512,
      "حقيقي": 9513,
      "يقولون": 9514,
      "بسهولة": 9515,
      "ودعت": 9516,
      "##ضحى": 9517,
      "التدخين": 9518,
      "جانبها": 9519,
      "الديوان": 9520,
      "ارتكب": 9521,
      "تكشف": 9522,
      "1990": 9523,
      "حريق": 9524,
      "الزب": 9525,
[...]
